node {
  name: "global_step/Initializer/zeros"
  op: "Const"
  attr {
    key: "_class"
    value {
      list {
        s: "loc:@global_step"
      }
    }
  }
  attr {
    key: "_output_shapes"
    value {
      list {
        shape {
        }
      }
    }
  }
  attr {
    key: "dtype"
    value {
      type: DT_INT64
    }
  }
  attr {
    key: "value"
    value {
      tensor {
        dtype: DT_INT64
        tensor_shape {
        }
        int64_val: 0
      }
    }
  }
}
node {
  name: "global_step"
  op: "VarHandleOp"
  attr {
    key: "_class"
    value {
      list {
        s: "loc:@global_step"
      }
    }
  }
  attr {
    key: "_output_shapes"
    value {
      list {
        shape {
        }
      }
    }
  }
  attr {
    key: "container"
    value {
      s: ""
    }
  }
  attr {
    key: "dtype"
    value {
      type: DT_INT64
    }
  }
  attr {
    key: "shape"
    value {
      shape {
      }
    }
  }
  attr {
    key: "shared_name"
    value {
      s: "global_step"
    }
  }
}
node {
  name: "global_step/IsInitialized/VarIsInitializedOp"
  op: "VarIsInitializedOp"
  input: "global_step"
  attr {
    key: "_output_shapes"
    value {
      list {
        shape {
        }
      }
    }
  }
}
node {
  name: "global_step/Assign"
  op: "AssignVariableOp"
  input: "global_step"
  input: "global_step/Initializer/zeros"
  attr {
    key: "dtype"
    value {
      type: DT_INT64
    }
  }
}
node {
  name: "global_step/Read/ReadVariableOp"
  op: "ReadVariableOp"
  input: "global_step"
  attr {
    key: "_output_shapes"
    value {
      list {
        shape {
        }
      }
    }
  }
  attr {
    key: "dtype"
    value {
      type: DT_INT64
    }
  }
}
node {
  name: "global_step/VarIsInitializedOp"
  op: "VarIsInitializedOp"
  input: "global_step"
  attr {
    key: "_output_shapes"
    value {
      list {
        shape {
        }
      }
    }
  }
}
node {
  name: "global_step/cond"
  op: "If"
  input: "global_step/VarIsInitializedOp"
  input: "global_step"
  input: "global_step/Initializer/zeros"
  attr {
    key: "Tcond"
    value {
      type: DT_BOOL
    }
  }
  attr {
    key: "Tin"
    value {
      list {
        type: DT_RESOURCE
        type: DT_INT64
      }
    }
  }
  attr {
    key: "Tout"
    value {
      list {
        type: DT_INT64
      }
    }
  }
  attr {
    key: "_lower_using_switch_merge"
    value {
      b: true
    }
  }
  attr {
    key: "_output_shapes"
    value {
      list {
        shape {
        }
      }
    }
  }
  attr {
    key: "else_branch"
    value {
      func {
        name: "global_step_cond_false_64604"
      }
    }
  }
  attr {
    key: "output_shapes"
    value {
      list {
        shape {
        }
      }
    }
  }
  attr {
    key: "then_branch"
    value {
      func {
        name: "global_step_cond_true_64603"
      }
    }
  }
}
node {
  name: "global_step/cond/Identity"
  op: "Identity"
  input: "global_step/cond"
  attr {
    key: "T"
    value {
      type: DT_INT64
    }
  }
  attr {
    key: "_output_shapes"
    value {
      list {
        shape {
        }
      }
    }
  }
}
node {
  name: "global_step/add/y"
  op: "Const"
  attr {
    key: "_output_shapes"
    value {
      list {
        shape {
        }
      }
    }
  }
  attr {
    key: "dtype"
    value {
      type: DT_INT64
    }
  }
  attr {
    key: "value"
    value {
      tensor {
        dtype: DT_INT64
        tensor_shape {
        }
        int64_val: 0
      }
    }
  }
}
node {
  name: "global_step/add"
  op: "AddV2"
  input: "global_step/cond/Identity"
  input: "global_step/add/y"
  attr {
    key: "T"
    value {
      type: DT_INT64
    }
  }
  attr {
    key: "_output_shapes"
    value {
      list {
        shape {
        }
      }
    }
  }
}
node {
  name: "normalize_element/component_0"
  op: "Const"
  device: "/device:CPU:0"
  attr {
    key: "_output_shapes"
    value {
      list {
        shape {
          dim {
            size: 668
          }
        }
      }
    }
  }
  attr {
    key: "dtype"
    value {
      type: DT_DOUBLE
    }
  }
  attr {
    key: "value"
    value {
      tensor {
        dtype: DT_DOUBLE
        tensor_shape {
          dim {
            size: 668
          }
        }
        tensor_content: "\000\000\000\000\000\000<@\000\000\000\000\000\200C@\000\000\000\000\000\000B@\000\000\000\000\000\000<@\000\000\000\000\000\0005@\000\000\000\000\000\000<@\000\000\000\000\000\000;@\000\000\000\000\000\000?@\000\000\000\000\000\000C@\000\000\000\000\000\0009@\000\000\000\000\000\000<@\000\000\000\000\000\000C@\000\000\000\000\000\0007@\000\000\000\000\000\000D@\000\000\000\000\000\0003@\000\000\000\000\000\0005@\000\000\000\000\000\000<@\000\000\000\000\000\0000@\000\000\000\000\000\200B@\000\000\000\000\000\000.@\000\000\000\000\000\000 @\000\000\000\000\000\0008@\000\000\000\000\000\000<@\000\000\000\000\000\0009@\000\000\000\000\000\0002@\000\000\000\000\000\0006@\000\000\000\000\000\000<@\000\000\000\000\000\000<@\000\000\000\000\000\0001@\000\000\000\000\000\000@@\000\000\000\000\000\000<@\000\000\000\000\000\000M@\000\000\000\000\000\000<@\000\000\000\000\000\0006@\000\000\000\000\000\000A@\000\000\000\000\000\0002@\000\000\000\000\000\000<@\000\000\000\000\000\000\360?\000\000\000\000\000\0009@\000\000\000\000\000\000B@\000\000\000\000\000\000<@\000\000\000\000\000\000@@\000\000\000\000\000\200@@\000\000\000\000\000\0005@\000\000\000\000\000\200@@\000\000\000\000\000\0003@\000\000\000\000\000\0003@\000\000\000\000\000\000J@\000\000\000\000\000\0001@\000\000\000\000\000\200G@\000\000\000\000\000\000<@\000\000\000\000\000\000O@\000\000\000\000\000\000<@\000\000\000\000\000\000D@\000\000\000\000\000\000@@\000\000\000\000\000\200D@\000\000\000\000\000\000<@\000\000\000\000\000\0005@\000\000\000\000\000\200@@\000\000\000\000\000\000;@\000\000\000\000\000\200C@\000\000\000\000\000\0007@\000\000\000\000\000@D@\000\000\000\000\000\000\034@\000\000\000\000\000\000:@\000\000\000\000\000\000<@\000\000\000\000\000\000<@\000\000\000\000\000\000D@\000\000\000\000\000\200F@\000\000\000\000\000\0008@\000\000\000\000\000\000<@\000\000\000\000\000\0002@\000\000\000\000\000\000<@\000\000\000\000\000\000\020@\000\000\000\000\000\000M@\000\000\000\000\000\000J@\000\000\000\000\000\000?@\000\000\000\000\000\000G@\000\000\000\000\000\000:@\000\000\000\000\000\200B@\000\000\000\000\000\000N@\000\000\000\000\000\000?@\000\000\000\000\000\000I@\000\000\000\000\000\000<@\000\000\000\000\000\0005@\000\000\000\000\000\000A@\000\000\000\000\000\000F@\000\000\000\000\000\000E@\000\000\000\000\000\000E@\000\000\000\000\000\000<@\000\000\000\000\000\000?@\000\000\000\000\000\000&@\000\000\000\000\000\000B@\000\000\000\000\000\000@@\000\000\000\000\000\0003@\000\000\000\000\000\0002@\000\000\000\000\000\000\030@\000\000\000\000\000\000<@\000\000\000\000\000\000J@\000\000\000\000\000\000?@\000\000\000\000\000\000*@\000\000\000\000\000\200F@\000\000\000\000\000\000\010@\000\000\000\000\000\000<@\000\000\000\000\000\0005@\000\000\000\000\000\000<@\000\000\000\000\000\000<@\000\000\000\000\000\300Q@\000\000\000\000\000\0006@\000\000\000\000\000\000\020@\000\000\000\000\000\000<@\000\000\000\000\000\000<@\000\000\000\000\000\0003@\000\000\000\000\000\0005@\000\000\000\000\000\0005@\000\000\000\000\000\200F@\000\000\000\000\000\200Q@\000\000\000\000\000\000<@\000\000\000\000\000\200A@\000\000\000\000\000\000\024@\000\000\000\000\000\000<@\000\000\000\000\000\000B@\000\000\000\000\000\000<@\000\000\000\000\000\000?@\000\000\000\000\000\000;@\000\000\000\000\000\0008@\000\000\000\000\000\200A@\000\000\000\000\000\200H@\000\000\000\000\000\000<@\000\000\000\000\000\000<@\000\000\000\000\000\200I@\000\000\000\000\000\000;@\000\000\000\000\000\000<@\000\000\000\000\000\200B@\000\000\000\000\000\000K@\000\000\000\000\000\000<@\000\000\000\000\000\0004@\000\000\000\000\000\000;@\000\000\000\000\000\000H@\000\000\000\000\000\000D@\000\000\000\000\000\000=@\000\000\000\000\000\0002@\000\000\000\000\000\000=@\000\000\000\000\000\000&@\000\000\000\000\000\240Q@\000\000\000\000\000\000>@\000\000\000\000\000\0003@\000\000\000\000\000\000<@\000\000\000\000\000\0003@\000\000\000\000\000\0001@\000\000\000\000\000\0002@\000\000\000\000\000\000A@\000\000\000\000\000\000<@\000\000\000\000\000\200B@\000\000\000\000\000\0002@\000\000\000\000\000\000&@\000\000\000\000\000\200F@\000\000\000\000\000\000?@\000\000\000\000\000\200E@\000\000\000\000\000\0008@\000\000\000\000\000@P@\000\000\000\000\000@A@\000\000\000\000\000\0009@\000\000\000\000\000\000<@\000\000\000\000\000\000:@\000\000\000\000\000\0003@\000\000\000\000\000\0002@\000\000\000\000\000\000H@\000\000\000\000\000\000<@\000\000\000\000\000\000\000@\000\000\000\000\000\200A@\000\000\000\000\000\000<@\000\000\000\000\000\000<@\000\000\000\000\000\000<@\000\000\000\000\000\000\350?\000\000\000\000\000\000<@\000\000\000\000\000\200A@\000\000\000\000\000\0007@\000\000\000\000\000\000=@\000\000\000\000\000\000\000@\000\000\000\000\000\2008@\000\000\000\000\000\0001@\000\000\000\000\000\000J@\000\000\000\000\000\000<@\000\000\000\000\000\0009@\000\000\000\000\000\000\010@\000\000\000\000\000\200I@\000\000\000\000\000\000C@\000\000\000\000\000\0002@\000\000\000\000\000\000<@\000\000\000\000\000\0000@\000\000\000\000\000\000\020@\000\000\000\000\000\000?@\000\000\000\000\000\000D@\000\000\000\000\000\000<@\000\000\000\000\000\000<@\000\000\000\000\000\200E@\000\000\000\000\000\000F@\000\000\000\000\000\000@@\000\000\000\000\000\000<@\000\000\000\000\000\200C@\000\000\000\000\000\000\"@\000\000\000\000\000\000>@\000\000\000\000\000\000<@\000\000\000\000\000\200C@\000\000\000\000\000\0004@\000\000\000\000\000\000<@\000\000\000\000\000\200I@\000\000\000\000\000\0008@\000\000\000\000\000\000>@\000\000\000\000\000\000;@\000\000\000\000\000\000?@\000\000\000\000\000\000=@\000\000\000\000\000\000D@\000\000\000\000\000\000\010@\000\000\000\000\000\000\000@\000\000\000\000\000\000I@\000\000\000\000\000\0002@\000\000\000\000\000\000\020@\000\000\000\000\000\200F@\000\000\000\000\000\200J@\000\000\000\000\000@@@\000\000\000\000\000\000D@\000\000\000\000\000\000<@\000\000\000\000\000\000<@\000\000\000\000\000\000N@\000\000\000\000\000\000\360?\000\000\000\000\000\000<@\000\000\000\000\000\000<@\000\000\000\000\000\000<@\000\000\000\000\000\000<@\000\000\000\000\000\000\000@\000\000\000\000\000\000L@\000\000\000\000\000\0008@\000\000\000\000\000\000:@\000\000\000\000\000\000F@\000\000\000\000\000\0005@\000\000\000\000\000\300Q@\000\000\000\000\000\0000@\000\000\000\000\000\000B@\000\000\000\000\000\0003@\000\000\000\000\000\000=@\000\000\000\000\000\000<@\000\000\000\000\000\000<@\000\000\000\000\000\000?@\000\000\000\000\000\200N@\000\000\000\000\000\0008@\000\000\000\000\000\000=@\000\000\000\000\000\000<@\000\000\000\000\000\000:@\000\000\000\000\000\000>@\000\000\000\000\000\000<@\000\000\000\000\000\200@@\000\000\000\000\000\000<@\000\000\000\000\000\000K@\000\000\000\000\000\200G@\000\000\000\000\000\0006@\000\000\000\000\000\0006@\000\000\000\000\000\0006@\000\000\000\000\000\0009@\000\000\000\000\000\000<@\000\000\000\000\000\000<@\000\000\000\000\000\0008@\000\000\000\000\000\000B@\000\000\000\000\000\0005@\000\000\000\000\000\000\020@\000\000\000\000\000\000E@\000\000\000\000\000\0003@\000\000\000\000\000\000<@\000\000\000\000\000\000,@\000\000\000\000\000\0008@\000\000\000\000\000\000\000@\000\000\000\000\000\0001@\000\000\000\000\000\000J@\000\000\000\000\000\000<@\000\000\000\000\000\0006@\000\000\000\000\000\0008@\000\000\000\000\000\000:@\000\000\000\000\000\0004@\000\000\000\000\000\000@@\000\000\000\000\000\000\020@\000\000\000\000\000\000:@\000\000\000\000\000\0006@\000\000\000\000\000\0001@\000\000\000\000\000\000<@\000\000\000\000\000\200I@\000\000\000\000\000\0004@\000\000\000\000\000\0008@\000\000\000\000\000\000<@\000\000\000\000\000\000<@\000\000\000\000\000\000=@\000\000\000\000\000\000:@\000\000\000\000\000\0001@\000\000\000\000\000\200A@\000\000\000\000\000\000?@\000\000\000\000\000\0007@\000\000\000\000\000\000?@\000\000\000\000\000\0007@\000\000\000\000\000\200C@\000\000\000\000\000\0005@\000\000\000\000\000\000.@\000\000\000\000\000\0009@\000\000\000\000\000\000B@\000\000\000\000\000\200G@\000\000\000\000\000\0008@\000\000\000\000\000\000<@\000\000\000\000\000\0004@\000\000\000\000\000\000,@\000\000\000\000\000\0000@\000\000\000\000\000\0009@\000\000\000\000\000\000\"@\000\000\000\000\000\000*@\000\000\000\000\000\000<@\000\000\000\000\000\000&@\000\000\000\000\000\000<@\000\000\000\000\000\0002@\000\000\000\000\000\000B@\000\000\000\000\000\000;@\000\000\000\000\000\0000@\000\000\000\000\000\000@@\000\000\000\000\000\000>@\000\000\000\000\000\000<@\000\000\000\000\000\200D@\000\000\000\000\000\000<@\000\000\000\000\000\000I@\000\000\000\000\000\200A@\000\000\000\000\000\000<@\000\000\000\000\000\0001@\000\000\000\000\000\0003@\000\000\000\000\000\000-@\000\000\000\000\000\000F@\000\000\000\000\000\000>@\000\000\000\000\000\000K@\000\000\000\000\000\200F@\000\000\000\000\000\200D@\000\000\000\000\000\000K@\000\000\000\000\000\000E@\000\000\000\000\000\0003@\000\000\000\000\000\000M@\000\000\000\000\000\000<@\000\000\000\000\000\200@@q=\n\327\243p\345?\000\000\000\000\000\000<@\000\000\000\000\000\2004@\000\000\000\000\000\000=@\000\000\000\000\000\000<@\000\000\000\000\000\200O@\000\000\000\000\000\000<@\000\000\000\000\000\000A@\000\000\000\000\000\000\360?\000\000\000\000\000\000<@\000\000\000\000\000\0008@\000\000\000\000\000\000<@\000\000\000\000\000\0009@\000\000\000\000\000\000<@\000\000\000\000\000\000P@\000\000\000\000\000\0006@\000\000\000\000\000\000<@\000\000\000\000\000\000<@\000\000\000\000\000\000<@\000\000\000\000\000\200A@\000\000\000\000\000\000<@\000\000\000\000\000\000<@\000\000\000\000\000\000 @\000\000\000\000\000\000\360?\000\000\000\000\000\200D@\000\000\000\000\000\000@@\000\000\000\000\000\000<@\000\000\000\000\000\000B@\000\000\000\000\000\000:@\000\000\000\000\000\200B@\000\000\000\000\000\200L@\000\000\000\000\000\000<@\000\000\000\000\000\000\000@\000\000\000\000\000\000?@\000\000\000\000\000\0004@\000\000\000\000\000\0007@\000\000\000\000\000\000B@\000\000\000\000\000\0005@\000\000\000\000\000\0003@\000\000\000\000\000\000<@\000\000\000\000\000\0009@\000\000\000\000\000\000=@\000\000\000\000\000\000>@\000\000\000\000\000\000\000@\000\000\000\000\000\000>@\000\000\000\000\000\000<@\000\000\000\000\000\000?@\000\000\000\000\000\0005@\000\000\000\000\000\000<@\000\000\000\000\000\0007@\000\000\000\000\000\000<@\000\000\000\000\000\0001@\000\000\000\000\000\000<@\000\000\000\000\000\0002@\000\000\000\000\000\0009@\000\000\000\000\000\200A@\000\000\000\000\000\0003@\000\000\000\000\000\000<@\000\000\000\000\000\000\020@\000\000\000\000\000\200I@\000\000\000\000\000\000>@\000\000\000\000\000\000>@\000\000\000\000\000\000E@\000\000\000\000\000\000<@\000\000\000\000\000\0008@\000\000\000\000\000\000;@\000\000\000\000\000\200<@\000\000\000\000\000\000N@\217\302\365(\\\217\352?\000\000\000\000\000\000<@\000\000\000\000\000\000;@\000\000\000\000\000\0002@\000\000\000\000\000\200G@\000\000\000\000\000\0007@\000\000\000\000\000\000<@\000\000\000\000\000\000A@\000\000\000\000\000\0009@\000\000\000\000\000\000D@\000\000\000\000\000\0003@\000\000\000\000\000\200F@\000\000\000\000\000\000<@\000\000\000\000\000\000<@\000\000\000\000\000\200C@\000\000\000\000\000\0002@\000\000\000\000\000\200D@\000\000\000\000\000\000B@\000\000\000\000\000\000<@\000\000\000\000\000\000\360?\000\000\000\000\000\0008@\000\000\000\000\000\000,@\000\000\000\000\000\000<@\000\000\000\000\000\0003@\000\000\000\000\000\0000@\000\000\000\000\000\000B@\000\000\000\000\000\200A@\000\000\000\000\000\000:@\000\000\000\000\000\200@@\000\000\000\000\000\000F@\000\000\000\000\000\000M@\000\000\000\000\000\0002@\000\000\000\000\000\000<@\000\000\000\000\000\0003@\000\000\000\000\000\000<@\000\000\000\000\000\000<@\000\000\000\000\000\200F@\000\000\000\000\000\0006@\000\000\000\000\000\000H@\217\302\365(\\\217\352?\000\000\000\000\000\000=@\000\000\000\000\000\0008@\000\000\000\000\000\0004@\000\000\000\000\000\0003@\000\000\000\000\000\000@@\000\000\000\000\000\000<@\000\000\000\000\000\000<@\000\000\000\000\000\000<@\000\000\000\000\000\000<@\000\000\000\000\000\000$@\000\000\000\000\000\000;@\000\000\000\000\000\0000@\000\000\000\000\000\0006@\000\000\000\000\000\200@@\000\000\000\000\000\0005@\000\000\000\000\000\0000@\000\000\000\000\000\000A@\000\000\000\000\000\000A@\000\000\000\000\000\200F@\000\000\000\000\000\000=@\000\000\000\000\000\000H@\000\000\000\000\000\200@@\000\000\000\000\000\000@@\000\000\000\000\000\000<@\000\000\000\000\000\0000@\000\000\000\000\000\0006@\000\000\000\000\000\000C@\000\000\000\000\000\0008@\000\000\000\000\000\200A@\000\000\000\000\000\000B@\000\000\000\000\000\000\030@\000\000\000\000\000\000<@\000\000\000\000\000\000<@\000\000\000\000\000\000F@\000\000\000\000\000\000<@\000\000\000\000\000\000I@\000\000\000\000\000\200@@\000\000\000\000\000\000H@\000\000\000\000\000\000:@\000\000\000\000\000\000<@\000\000\000\000\000\000D@\000\000\000\000\000\000<@\000\000\000\000\000\000E@\000\000\000\000\000\000<@\000\000\000\000\000\000<@\000\000\000\000\000\0000@\000\000\000\000\000\0003@\000\000\000\000\000\000:@\000\000\000\000\000\200A@\000\000\000\000\000\200H@\000\000\000\000\000\000.@\000\000\000\000\000\000<@\000\000\000\000\000\000<@\000\000\000\000\000\000<@\000\000\000\000\000\0008@\000\000\000\000\000\0008@\000\000\000\000\000\000A@\000\000\000\000\000\000D@\000\000\000\000\000\200@@\000\000\000\000\000\000\350?\000\000\000\000\000\0006@\000\000\000\000\000\300F@\000\000\000\000\000\000\024@\000\000\000\000\000\0006@\000\000\000\000\000\000<@\000\000\000\000\000\000G@\000\000\000\000\000\000<@\000\000\000\000\000\200H@\000\000\000\000\000\0005@\000\000\000\000\000\0003@\000\000\000\000\000\000\"@\000\000\000\000\000\000:@\000\000\000\000\000\000C@\000\000\000\000\000\000P@\000\000\000\000\000\0002@\000\000\000\000\000\000<@\000\000\000\000\000\0007@\000\000\000\000\000\0008@\000\000\000\000\000\200A@\000\000\000\000\000\000>@\000\000\000\000\000\000<@\000\000\000\000\000\200C@\000\000\000\000\000\0005@\000\000\000\000\000\000<@\000\000\000\000\000\000>@\000\000\000\000\000\0003@\000\000\000\000\000\0004@\000\000\000\000\000\000<@\000\000\000\000\000\000>@\000\000\000\000\000\000@@\000\000\000\000\000\0000@\000\000\000\000\000\000<@\000\000\000\000\000\000<@\000\000\000\000\000\000<@\000\000\000\000\000\000<@\000\000\000\000\000\000E@\000\000\000\000\000\000<@\000\000\000\000\000\0001@\000\000\000\000\000\000L@\000\000\000\000\000\000<@\000\000\000\000\000\200D@\000\000\000\000\000\0008@\000\000\000\000\000\0006@\000\000\000\000\000\200E@\000\000\000\000\000\0009@\000\000\000\000\000\000<@\000\000\000\000\000\000H@\000\000\000\000\000\000<@\000\000\000\000\000\0004@\000\000\000\000\000\000,@\000\000\000\000\000\000I@\000\000\000\000\000\000?@\000\000\000\000\000\000O@\000\000\000\000\000\0003@\000\000\000\000\000\0004@\000\000\000\000\000\0006@\000\000\000\000\000@P@\000\000\000\000\000\000<@\000\000\000\000\000\000E@\000\000\000\000\000\000>@\000\000\000\000\000\200F@\000\000\000\000\000\000@@\000\000\000\000\000\0002@\000\000\000\000\000\0004@\000\000\000\000\000\0007@\000\000\000\000\000\0007@\000\000\000\000\000\000<@\000\000\000\000\000\000<@\000\000\000\000\000\000<@\000\000\000\000\000\0009@\000\000\000\000\000\000<@\000\000\000\000\000\300F@\000\000\000\000\000\000;@\000\000\000\000\000\200I@\000\000\000\000\000\000A@\000\000\000\000\000\0005@\000\000\000\000\000\000<@\000\000\000\000\000\200@@\000\000\000\000\000\000<@\000\000\000\000\000\000B@\000\000\000\000\000\000<@\000\000\000\000\000\000>@\000\000\000\000\000@@@\000\000\000\000\000\200P@\000\000\000\000\000\000E@\000\000\000\000\000\000A@\000\000\000\000\000\000<@\000\000\000\000\000\000C@\000\000\000\000\000\000>@\000\000\000\000\000\000;@\000\000\000\000\000\000<@\000\000\000\000\000\0006@\000\000\000\000\000\000D@\000\000\000\000\000\000C@\000\000\000\000\000\200@@\000\000\000\000\000\000G@\000\000\000\000\000\0006@\000\000\000\000\000\200G@\000\000\000\000\000\000K@\000\000\000\000\000\000\024@\341z\024\256G\341\332?\000\000\000\000\000\200Q@\000\000\000\000\000\000<@\000\000\000\000\000\200A@\000\000\000\000\000\000B@\000\000\000\000\000\0000@\000\000\000\000\000\200A@\000\000\000\000\000\000E@\000\000\000\000\000\000\010@\000\000\000\000\000\200C@\000\000\000\000\000\000:@\000\000\000\000\000\000>@\000\000\000\000\000\0005@\000\000\000\000\000\000M@\000\000\000\000\000\200O@\000\000\000\000\000\200B@\000\000\000\000\000\0005@\000\000\000\000\000\200L@\000\000\000\000\000\0001@\000\000\000\000\000\200G@\000\000\000\000\000\000<@\000\000\000\000\000\000:@\000\000\000\000\000\000:@\000\000\000\000\000\000B@\000\000\000\000\000\000B@\000\000\000\000\000\0006@\000\000\000\000\000\000\360?\000\000\000\000\000\300K@\000\000\000\000\000\000\000@\000\000\000\000\000\000B@\000\000\000\000\000\0009@\000\000\000\000\000\0003@\000\000\000\000\000\000<@\000\000\000\000\000\000 @\000\000\000\000\000\000K@\000\000\000\000\000\000<@\000\000\000\000\000\000;@\000\000\000\000\000\0009@\000\000\000\000\000\000B@\000\000\000\000\000\0005@\000\000\000\000\000\000E@\000\000\000\000\000\0001@\000\000\000\000\000\200F@\000\000\000\000\000\000=@\000\000\000\000\000\0006@\000\000\000\000\000\000N@\000\000\000\000\000\0008@\000\000\000\000\000\000<@\000\000\000\000\000\000\034@\000\000\000\000\000\0007@\000\000\000\000\000\000<@\000\000\000\000\000\000\010@\000\000\000\000\000\0008@\000\000\000\000\000\200A@\000\000\000\000\000\000@@\000\000\000\000\000\000<@\000\000\000\000\000\000>@\000\000\000\000\000\000<@\000\000\000\000\000\0002@"
      }
    }
  }
}
node {
  name: "normalize_element/component_1"
  op: "Const"
  device: "/device:CPU:0"
  attr {
    key: "_output_shapes"
    value {
      list {
        shape {
          dim {
            size: 668
          }
        }
      }
    }
  }
  attr {
    key: "dtype"
    value {
      type: DT_STRING
    }
  }
  attr {
    key: "value"
    value {
      tensor {
        dtype: DT_STRING
        tensor_shape {
          dim {
            size: 668
          }
        }
        string_val: "Unknown"
        string_val: "E"
        string_val: "D"
        string_val: "Unknown"
        string_val: "Unknown"
        string_val: "Unknown"
        string_val: "Unknown"
        string_val: "Unknown"
        string_val: "Unknown"
        string_val: "Unknown"
        string_val: "Unknown"
        string_val: "C"
        string_val: "Unknown"
        string_val: "Unknown"
        string_val: "D"
        string_val: "Unknown"
        string_val: "Unknown"
        string_val: "Unknown"
        string_val: "Unknown"
        string_val: "Unknown"
        string_val: "Unknown"
        string_val: "Unknown"
        string_val: "C"
        string_val: "B"
        string_val: "Unknown"
        string_val: "Unknown"
        string_val: "Unknown"
        string_val: "Unknown"
        string_val: "B"
        string_val: "Unknown"
        string_val: "C"
        string_val: "B"
        string_val: "F"
        string_val: "Unknown"
        string_val: "Unknown"
        string_val: "Unknown"
        string_val: "Unknown"
        string_val: "Unknown"
        string_val: "Unknown"
        string_val: "Unknown"
        string_val: "Unknown"
        string_val: "D"
        string_val: "Unknown"
        string_val: "Unknown"
        string_val: "B"
        string_val: "Unknown"
        string_val: "Unknown"
        string_val: "Unknown"
        string_val: "Unknown"
        string_val: "Unknown"
        string_val: "Unknown"
        string_val: "C"
        string_val: "Unknown"
        string_val: "B"
        string_val: "Unknown"
        string_val: "Unknown"
        string_val: "Unknown"
        string_val: "Unknown"
        string_val: "Unknown"
        string_val: "Unknown"
        string_val: "Unknown"
        string_val: "Unknown"
        string_val: "Unknown"
        string_val: "Unknown"
        string_val: "Unknown"
        string_val: "Unknown"
        string_val: "Unknown"
        string_val: "Unknown"
        string_val: "Unknown"
        string_val: "Unknown"
        string_val: "Unknown"
        string_val: "Unknown"
        string_val: "Unknown"
        string_val: "A"
        string_val: "D"
        string_val: "D"
        string_val: "B"
        string_val: "Unknown"
        string_val: "Unknown"
        string_val: "C"
        string_val: "B"
        string_val: "Unknown"
        string_val: "C"
        string_val: "Unknown"
        string_val: "Unknown"
        string_val: "Unknown"
        string_val: "Unknown"
        string_val: "Unknown"
        string_val: "Unknown"
        string_val: "Unknown"
        string_val: "C"
        string_val: "Unknown"
        string_val: "B"
        string_val: "Unknown"
        string_val: "Unknown"
        string_val: "Unknown"
        string_val: "Unknown"
        string_val: "Unknown"
        string_val: "B"
        string_val: "Unknown"
        string_val: "Unknown"
        string_val: "T"
        string_val: "F"
        string_val: "Unknown"
        string_val: "B"
        string_val: "C"
        string_val: "Unknown"
        string_val: "A"
        string_val: "Unknown"
        string_val: "F"
        string_val: "Unknown"
        string_val: "Unknown"
        string_val: "B"
        string_val: "Unknown"
        string_val: "Unknown"
        string_val: "C"
        string_val: "Unknown"
        string_val: "Unknown"
        string_val: "C"
        string_val: "Unknown"
        string_val: "Unknown"
        string_val: "E"
        string_val: "Unknown"
        string_val: "Unknown"
        string_val: "Unknown"
        string_val: "Unknown"
        string_val: "Unknown"
        string_val: "D"
        string_val: "Unknown"
        string_val: "Unknown"
        string_val: "Unknown"
        string_val: "C"
        string_val: "Unknown"
        string_val: "D"
        string_val: "Unknown"
        string_val: "Unknown"
        string_val: "Unknown"
        string_val: "E"
        string_val: "Unknown"
        string_val: "Unknown"
        string_val: "Unknown"
        string_val: "Unknown"
        string_val: "Unknown"
        string_val: "Unknown"
        string_val: "Unknown"
        string_val: "Unknown"
        string_val: "F"
        string_val: "Unknown"
        string_val: "C"
        string_val: "C"
        string_val: "Unknown"
        string_val: "Unknown"
        string_val: "Unknown"
        string_val: "Unknown"
        string_val: "E"
        string_val: "B"
        string_val: "Unknown"
        string_val: "B"
        string_val: "Unknown"
        string_val: "Unknown"
        string_val: "Unknown"
        string_val: "Unknown"
        string_val: "Unknown"
        string_val: "Unknown"
        string_val: "Unknown"
        string_val: "Unknown"
        string_val: "Unknown"
        string_val: "D"
        string_val: "A"
        string_val: "F"
        string_val: "Unknown"
        string_val: "Unknown"
        string_val: "Unknown"
        string_val: "Unknown"
        string_val: "Unknown"
        string_val: "Unknown"
        string_val: "Unknown"
        string_val: "D"
        string_val: "Unknown"
        string_val: "Unknown"
        string_val: "Unknown"
        string_val: "Unknown"
        string_val: "E"
        string_val: "Unknown"
        string_val: "C"
        string_val: "Unknown"
        string_val: "E"
        string_val: "Unknown"
        string_val: "Unknown"
        string_val: "Unknown"
        string_val: "Unknown"
        string_val: "G"
        string_val: "Unknown"
        string_val: "E"
        string_val: "Unknown"
        string_val: "Unknown"
        string_val: "B"
        string_val: "Unknown"
        string_val: "Unknown"
        string_val: "Unknown"
        string_val: "E"
        string_val: "Unknown"
        string_val: "Unknown"
        string_val: "Unknown"
        string_val: "A"
        string_val: "Unknown"
        string_val: "Unknown"
        string_val: "D"
        string_val: "Unknown"
        string_val: "Unknown"
        string_val: "Unknown"
        string_val: "Unknown"
        string_val: "Unknown"
        string_val: "Unknown"
        string_val: "Unknown"
        string_val: "Unknown"
        string_val: "C"
        string_val: "C"
        string_val: "Unknown"
        string_val: "Unknown"
        string_val: "C"
        string_val: "Unknown"
        string_val: "Unknown"
        string_val: "Unknown"
        string_val: "B"
        string_val: "Unknown"
        string_val: "Unknown"
        string_val: "A"
        string_val: "C"
        string_val: "Unknown"
        string_val: "Unknown"
        string_val: "Unknown"
        string_val: "A"
        string_val: "Unknown"
        string_val: "Unknown"
        string_val: "C"
        string_val: "Unknown"
        string_val: "Unknown"
        string_val: "Unknown"
        string_val: "Unknown"
        string_val: "Unknown"
        string_val: "Unknown"
        string_val: "E"
        string_val: "Unknown"
        string_val: "A"
        string_val: "B"
        string_val: "C"
        string_val: "Unknown"
        string_val: "Unknown"
        string_val: "Unknown"
        string_val: "Unknown"
        string_val: "Unknown"
        string_val: "C"
        string_val: "Unknown"
        string_val: "Unknown"
        string_val: "E"
        string_val: "Unknown"
        string_val: "Unknown"
        string_val: "Unknown"
        string_val: "Unknown"
        string_val: "Unknown"
        string_val: "Unknown"
        string_val: "Unknown"
        string_val: "Unknown"
        string_val: "Unknown"
        string_val: "Unknown"
        string_val: "F"
        string_val: "B"
        string_val: "Unknown"
        string_val: "Unknown"
        string_val: "B"
        string_val: "Unknown"
        string_val: "Unknown"
        string_val: "Unknown"
        string_val: "Unknown"
        string_val: "Unknown"
        string_val: "G"
        string_val: "Unknown"
        string_val: "Unknown"
        string_val: "Unknown"
        string_val: "Unknown"
        string_val: "Unknown"
        string_val: "Unknown"
        string_val: "Unknown"
        string_val: "Unknown"
        string_val: "Unknown"
        string_val: "Unknown"
        string_val: "Unknown"
        string_val: "Unknown"
        string_val: "Unknown"
        string_val: "Unknown"
        string_val: "Unknown"
        string_val: "Unknown"
        string_val: "Unknown"
        string_val: "Unknown"
        string_val: "Unknown"
        string_val: "Unknown"
        string_val: "Unknown"
        string_val: "Unknown"
        string_val: "Unknown"
        string_val: "B"
        string_val: "Unknown"
        string_val: "Unknown"
        string_val: "Unknown"
        string_val: "Unknown"
        string_val: "Unknown"
        string_val: "Unknown"
        string_val: "Unknown"
        string_val: "Unknown"
        string_val: "E"
        string_val: "Unknown"
        string_val: "Unknown"
        string_val: "Unknown"
        string_val: "Unknown"
        string_val: "Unknown"
        string_val: "Unknown"
        string_val: "D"
        string_val: "Unknown"
        string_val: "B"
        string_val: "E"
        string_val: "Unknown"
        string_val: "Unknown"
        string_val: "Unknown"
        string_val: "Unknown"
        string_val: "Unknown"
        string_val: "Unknown"
        string_val: "Unknown"
        string_val: "Unknown"
        string_val: "D"
        string_val: "Unknown"
        string_val: "B"
        string_val: "Unknown"
        string_val: "D"
        string_val: "Unknown"
        string_val: "E"
        string_val: "D"
        string_val: "Unknown"
        string_val: "Unknown"
        string_val: "C"
        string_val: "Unknown"
        string_val: "Unknown"
        string_val: "Unknown"
        string_val: "Unknown"
        string_val: "Unknown"
        string_val: "D"
        string_val: "Unknown"
        string_val: "D"
        string_val: "Unknown"
        string_val: "Unknown"
        string_val: "Unknown"
        string_val: "Unknown"
        string_val: "B"
        string_val: "E"
        string_val: "Unknown"
        string_val: "Unknown"
        string_val: "Unknown"
        string_val: "Unknown"
        string_val: "Unknown"
        string_val: "Unknown"
        string_val: "C"
        string_val: "E"
        string_val: "Unknown"
        string_val: "Unknown"
        string_val: "Unknown"
        string_val: "Unknown"
        string_val: "Unknown"
        string_val: "Unknown"
        string_val: "Unknown"
        string_val: "B"
        string_val: "Unknown"
        string_val: "Unknown"
        string_val: "Unknown"
        string_val: "Unknown"
        string_val: "Unknown"
        string_val: "Unknown"
        string_val: "Unknown"
        string_val: "C"
        string_val: "Unknown"
        string_val: "D"
        string_val: "Unknown"
        string_val: "Unknown"
        string_val: "Unknown"
        string_val: "Unknown"
        string_val: "Unknown"
        string_val: "Unknown"
        string_val: "Unknown"
        string_val: "Unknown"
        string_val: "Unknown"
        string_val: "Unknown"
        string_val: "Unknown"
        string_val: "Unknown"
        string_val: "Unknown"
        string_val: "Unknown"
        string_val: "Unknown"
        string_val: "B"
        string_val: "Unknown"
        string_val: "B"
        string_val: "Unknown"
        string_val: "Unknown"
        string_val: "Unknown"
        string_val: "Unknown"
        string_val: "Unknown"
        string_val: "B"
        string_val: "Unknown"
        string_val: "Unknown"
        string_val: "B"
        string_val: "E"
        string_val: "Unknown"
        string_val: "Unknown"
        string_val: "Unknown"
        string_val: "Unknown"
        string_val: "Unknown"
        string_val: "Unknown"
        string_val: "Unknown"
        string_val: "Unknown"
        string_val: "B"
        string_val: "Unknown"
        string_val: "Unknown"
        string_val: "Unknown"
        string_val: "Unknown"
        string_val: "B"
        string_val: "Unknown"
        string_val: "Unknown"
        string_val: "Unknown"
        string_val: "Unknown"
        string_val: "Unknown"
        string_val: "Unknown"
        string_val: "Unknown"
        string_val: "Unknown"
        string_val: "Unknown"
        string_val: "Unknown"
        string_val: "Unknown"
        string_val: "Unknown"
        string_val: "Unknown"
        string_val: "Unknown"
        string_val: "Unknown"
        string_val: "Unknown"
        string_val: "Unknown"
        string_val: "Unknown"
        string_val: "C"
        string_val: "Unknown"
        string_val: "Unknown"
        string_val: "Unknown"
        string_val: "Unknown"
        string_val: "Unknown"
        string_val: "Unknown"
        string_val: "Unknown"
        string_val: "Unknown"
        string_val: "Unknown"
        string_val: "Unknown"
        string_val: "Unknown"
        string_val: "Unknown"
        string_val: "Unknown"
        string_val: "Unknown"
        string_val: "Unknown"
        string_val: "C"
        string_val: "Unknown"
        string_val: "Unknown"
        string_val: "Unknown"
        string_val: "Unknown"
        string_val: "Unknown"
        string_val: "B"
        string_val: "Unknown"
        string_val: "Unknown"
        string_val: "Unknown"
        string_val: "Unknown"
        string_val: "Unknown"
        string_val: "Unknown"
        string_val: "Unknown"
        string_val: "C"
        string_val: "Unknown"
        string_val: "Unknown"
        string_val: "Unknown"
        string_val: "Unknown"
        string_val: "Unknown"
        string_val: "C"
        string_val: "C"
        string_val: "C"
        string_val: "Unknown"
        string_val: "Unknown"
        string_val: "Unknown"
        string_val: "Unknown"
        string_val: "Unknown"
        string_val: "Unknown"
        string_val: "Unknown"
        string_val: "Unknown"
        string_val: "Unknown"
        string_val: "Unknown"
        string_val: "Unknown"
        string_val: "Unknown"
        string_val: "Unknown"
        string_val: "Unknown"
        string_val: "Unknown"
        string_val: "Unknown"
        string_val: "Unknown"
        string_val: "Unknown"
        string_val: "Unknown"
        string_val: "C"
        string_val: "C"
        string_val: "Unknown"
        string_val: "C"
        string_val: "Unknown"
        string_val: "Unknown"
        string_val: "Unknown"
        string_val: "Unknown"
        string_val: "Unknown"
        string_val: "Unknown"
        string_val: "Unknown"
        string_val: "Unknown"
        string_val: "Unknown"
        string_val: "C"
        string_val: "Unknown"
        string_val: "Unknown"
        string_val: "A"
        string_val: "B"
        string_val: "C"
        string_val: "A"
        string_val: "Unknown"
        string_val: "Unknown"
        string_val: "Unknown"
        string_val: "Unknown"
        string_val: "C"
        string_val: "C"
        string_val: "Unknown"
        string_val: "Unknown"
        string_val: "Unknown"
        string_val: "Unknown"
        string_val: "C"
        string_val: "Unknown"
        string_val: "Unknown"
        string_val: "Unknown"
        string_val: "Unknown"
        string_val: "Unknown"
        string_val: "Unknown"
        string_val: "Unknown"
        string_val: "Unknown"
        string_val: "Unknown"
        string_val: "Unknown"
        string_val: "Unknown"
        string_val: "Unknown"
        string_val: "Unknown"
        string_val: "Unknown"
        string_val: "Unknown"
        string_val: "Unknown"
        string_val: "Unknown"
        string_val: "Unknown"
        string_val: "Unknown"
        string_val: "A"
        string_val: "Unknown"
        string_val: "Unknown"
        string_val: "C"
        string_val: "Unknown"
        string_val: "Unknown"
        string_val: "Unknown"
        string_val: "Unknown"
        string_val: "E"
        string_val: "Unknown"
        string_val: "Unknown"
        string_val: "Unknown"
        string_val: "E"
        string_val: "D"
        string_val: "Unknown"
        string_val: "Unknown"
        string_val: "Unknown"
        string_val: "Unknown"
        string_val: "E"
        string_val: "Unknown"
        string_val: "Unknown"
        string_val: "E"
        string_val: "Unknown"
        string_val: "Unknown"
        string_val: "Unknown"
        string_val: "Unknown"
        string_val: "D"
        string_val: "Unknown"
        string_val: "Unknown"
        string_val: "C"
        string_val: "Unknown"
        string_val: "Unknown"
        string_val: "Unknown"
        string_val: "Unknown"
        string_val: "Unknown"
        string_val: "Unknown"
        string_val: "D"
        string_val: "Unknown"
        string_val: "Unknown"
        string_val: "Unknown"
        string_val: "Unknown"
        string_val: "C"
        string_val: "Unknown"
        string_val: "Unknown"
        string_val: "E"
        string_val: "Unknown"
        string_val: "Unknown"
        string_val: "F"
        string_val: "Unknown"
        string_val: "Unknown"
        string_val: "Unknown"
        string_val: "Unknown"
        string_val: "Unknown"
        string_val: "E"
        string_val: "Unknown"
        string_val: "C"
        string_val: "B"
        string_val: "E"
        string_val: "C"
        string_val: "D"
        string_val: "Unknown"
        string_val: "Unknown"
        string_val: "Unknown"
        string_val: "B"
        string_val: "Unknown"
        string_val: "Unknown"
        string_val: "A"
        string_val: "Unknown"
        string_val: "Unknown"
        string_val: "Unknown"
        string_val: "Unknown"
        string_val: "Unknown"
        string_val: "Unknown"
        string_val: "B"
        string_val: "Unknown"
        string_val: "B"
        string_val: "Unknown"
        string_val: "C"
        string_val: "Unknown"
        string_val: "E"
        string_val: "C"
        string_val: "E"
        string_val: "Unknown"
        string_val: "Unknown"
        string_val: "Unknown"
        string_val: "Unknown"
        string_val: "B"
        string_val: "Unknown"
        string_val: "F"
        string_val: "Unknown"
        string_val: "Unknown"
        string_val: "C"
        string_val: "Unknown"
        string_val: "Unknown"
        string_val: "Unknown"
        string_val: "Unknown"
        string_val: "E"
        string_val: "Unknown"
        string_val: "E"
        string_val: "F"
        string_val: "E"
        string_val: "Unknown"
        string_val: "Unknown"
        string_val: "Unknown"
        string_val: "Unknown"
        string_val: "B"
        string_val: "Unknown"
        string_val: "D"
        string_val: "F"
        string_val: "Unknown"
        string_val: "Unknown"
        string_val: "Unknown"
        string_val: "A"
        string_val: "Unknown"
        string_val: "Unknown"
        string_val: "Unknown"
        string_val: "Unknown"
        string_val: "Unknown"
        string_val: "Unknown"
        string_val: "Unknown"
        string_val: "Unknown"
      }
    }
  }
}
node {
  name: "normalize_element/component_2"
  op: "Const"
  device: "/device:CPU:0"
  attr {
    key: "_output_shapes"
    value {
      list {
        shape {
          dim {
            size: 668
          }
        }
      }
    }
  }
  attr {
    key: "dtype"
    value {
      type: DT_STRING
    }
  }
  attr {
    key: "value"
    value {
      tensor {
        dtype: DT_STRING
        tensor_shape {
          dim {
            size: 668
          }
        }
        string_val: "C"
        string_val: "S"
        string_val: "S"
        string_val: "C"
        string_val: "S"
        string_val: "Q"
        string_val: "S"
        string_val: "S"
        string_val: "S"
        string_val: "C"
        string_val: "Q"
        string_val: "C"
        string_val: "S"
        string_val: "Q"
        string_val: "S"
        string_val: "S"
        string_val: "S"
        string_val: "S"
        string_val: "S"
        string_val: "C"
        string_val: "S"
        string_val: "S"
        string_val: "S"
        string_val: "C"
        string_val: "S"
        string_val: "C"
        string_val: "S"
        string_val: "Q"
        string_val: "S"
        string_val: "S"
        string_val: "S"
        string_val: "C"
        string_val: "C"
        string_val: "C"
        string_val: "S"
        string_val: "S"
        string_val: "S"
        string_val: "C"
        string_val: "S"
        string_val: "S"
        string_val: "S"
        string_val: "C"
        string_val: "S"
        string_val: "S"
        string_val: "S"
        string_val: "S"
        string_val: "S"
        string_val: "S"
        string_val: "C"
        string_val: "S"
        string_val: "S"
        string_val: "S"
        string_val: "S"
        string_val: "S"
        string_val: "S"
        string_val: "S"
        string_val: "S"
        string_val: "S"
        string_val: "C"
        string_val: "S"
        string_val: "S"
        string_val: "S"
        string_val: "Q"
        string_val: "Q"
        string_val: "S"
        string_val: "S"
        string_val: "C"
        string_val: "S"
        string_val: "S"
        string_val: "S"
        string_val: "S"
        string_val: "S"
        string_val: "C"
        string_val: "S"
        string_val: "C"
        string_val: "C"
        string_val: "S"
        string_val: "S"
        string_val: "S"
        string_val: "C"
        string_val: "C"
        string_val: "S"
        string_val: "C"
        string_val: "Q"
        string_val: "S"
        string_val: "S"
        string_val: "S"
        string_val: "S"
        string_val: "S"
        string_val: "C"
        string_val: "S"
        string_val: "C"
        string_val: "S"
        string_val: "Q"
        string_val: "S"
        string_val: "S"
        string_val: "S"
        string_val: "Q"
        string_val: "S"
        string_val: "S"
        string_val: "S"
        string_val: "S"
        string_val: "S"
        string_val: "S"
        string_val: "C"
        string_val: "S"
        string_val: "C"
        string_val: "C"
        string_val: "S"
        string_val: "S"
        string_val: "C"
        string_val: "C"
        string_val: "S"
        string_val: "S"
        string_val: "S"
        string_val: "S"
        string_val: "S"
        string_val: "S"
        string_val: "S"
        string_val: "S"
        string_val: "S"
        string_val: "S"
        string_val: "S"
        string_val: "S"
        string_val: "S"
        string_val: "S"
        string_val: "S"
        string_val: "C"
        string_val: "S"
        string_val: "C"
        string_val: "C"
        string_val: "C"
        string_val: "S"
        string_val: "S"
        string_val: "S"
        string_val: "Q"
        string_val: "S"
        string_val: "S"
        string_val: "S"
        string_val: "C"
        string_val: "S"
        string_val: "S"
        string_val: "S"
        string_val: "S"
        string_val: "Q"
        string_val: "S"
        string_val: "S"
        string_val: "S"
        string_val: "S"
        string_val: "C"
        string_val: "S"
        string_val: "S"
        string_val: "S"
        string_val: "S"
        string_val: "S"
        string_val: "S"
        string_val: "S"
        string_val: "S"
        string_val: "S"
        string_val: "S"
        string_val: "Q"
        string_val: "C"
        string_val: "S"
        string_val: "C"
        string_val: "C"
        string_val: "S"
        string_val: "S"
        string_val: "S"
        string_val: "S"
        string_val: "S"
        string_val: "S"
        string_val: "S"
        string_val: "S"
        string_val: "S"
        string_val: "C"
        string_val: "S"
        string_val: "S"
        string_val: "C"
        string_val: "C"
        string_val: "S"
        string_val: "S"
        string_val: "S"
        string_val: "S"
        string_val: "Q"
        string_val: "S"
        string_val: "S"
        string_val: "S"
        string_val: "S"
        string_val: "S"
        string_val: "S"
        string_val: "S"
        string_val: "S"
        string_val: "S"
        string_val: "C"
        string_val: "Q"
        string_val: "S"
        string_val: "S"
        string_val: "S"
        string_val: "S"
        string_val: "S"
        string_val: "S"
        string_val: "S"
        string_val: "C"
        string_val: "S"
        string_val: "S"
        string_val: "C"
        string_val: "S"
        string_val: "S"
        string_val: "S"
        string_val: "S"
        string_val: "S"
        string_val: "S"
        string_val: "S"
        string_val: "S"
        string_val: "C"
        string_val: "S"
        string_val: "C"
        string_val: "C"
        string_val: "C"
        string_val: "S"
        string_val: "S"
        string_val: "C"
        string_val: "S"
        string_val: "S"
        string_val: "C"
        string_val: "S"
        string_val: "S"
        string_val: "S"
        string_val: "S"
        string_val: "S"
        string_val: "C"
        string_val: "S"
        string_val: "C"
        string_val: "S"
        string_val: "S"
        string_val: "Q"
        string_val: "S"
        string_val: "C"
        string_val: "S"
        string_val: "S"
        string_val: "S"
        string_val: "S"
        string_val: "S"
        string_val: "S"
        string_val: "S"
        string_val: "S"
        string_val: "C"
        string_val: "C"
        string_val: "Q"
        string_val: "S"
        string_val: "Q"
        string_val: "C"
        string_val: "Q"
        string_val: "S"
        string_val: "S"
        string_val: "S"
        string_val: "S"
        string_val: "S"
        string_val: "S"
        string_val: "S"
        string_val: "S"
        string_val: "Q"
        string_val: "S"
        string_val: "S"
        string_val: "S"
        string_val: "S"
        string_val: "S"
        string_val: "C"
        string_val: "S"
        string_val: "S"
        string_val: "C"
        string_val: "S"
        string_val: "S"
        string_val: "S"
        string_val: "S"
        string_val: "S"
        string_val: "S"
        string_val: "S"
        string_val: "S"
        string_val: "S"
        string_val: "S"
        string_val: "S"
        string_val: "S"
        string_val: "C"
        string_val: "S"
        string_val: "S"
        string_val: "S"
        string_val: "S"
        string_val: "S"
        string_val: "Q"
        string_val: "S"
        string_val: "S"
        string_val: "S"
        string_val: "C"
        string_val: "Q"
        string_val: "C"
        string_val: "C"
        string_val: "S"
        string_val: "S"
        string_val: "Q"
        string_val: "S"
        string_val: "S"
        string_val: "S"
        string_val: "S"
        string_val: "S"
        string_val: "Q"
        string_val: "S"
        string_val: "S"
        string_val: "S"
        string_val: "C"
        string_val: "S"
        string_val: "C"
        string_val: "S"
        string_val: "S"
        string_val: "C"
        string_val: "S"
        string_val: "C"
        string_val: "S"
        string_val: "C"
        string_val: "S"
        string_val: "S"
        string_val: "Q"
        string_val: "S"
        string_val: "S"
        string_val: "S"
        string_val: "S"
        string_val: "S"
        string_val: "S"
        string_val: "S"
        string_val: "C"
        string_val: "C"
        string_val: "S"
        string_val: "C"
        string_val: "S"
        string_val: "C"
        string_val: "S"
        string_val: "S"
        string_val: "S"
        string_val: "S"
        string_val: "C"
        string_val: "S"
        string_val: "S"
        string_val: "C"
        string_val: "S"
        string_val: "S"
        string_val: "Q"
        string_val: "S"
        string_val: "Q"
        string_val: "S"
        string_val: "S"
        string_val: "C"
        string_val: "C"
        string_val: "Q"
        string_val: "S"
        string_val: "C"
        string_val: "S"
        string_val: "S"
        string_val: "Q"
        string_val: "Q"
        string_val: "S"
        string_val: "S"
        string_val: "Q"
        string_val: "S"
        string_val: "S"
        string_val: "S"
        string_val: "S"
        string_val: "S"
        string_val: "C"
        string_val: "C"
        string_val: "C"
        string_val: "S"
        string_val: "Q"
        string_val: "S"
        string_val: "Q"
        string_val: "S"
        string_val: "S"
        string_val: "S"
        string_val: "S"
        string_val: "S"
        string_val: "S"
        string_val: "C"
        string_val: "S"
        string_val: "S"
        string_val: "S"
        string_val: "S"
        string_val: "S"
        string_val: "Q"
        string_val: "S"
        string_val: "S"
        string_val: "S"
        string_val: "S"
        string_val: "Q"
        string_val: "S"
        string_val: "S"
        string_val: "C"
        string_val: "S"
        string_val: "C"
        string_val: "S"
        string_val: "C"
        string_val: "S"
        string_val: "S"
        string_val: "S"
        string_val: "S"
        string_val: "C"
        string_val: "S"
        string_val: "C"
        string_val: "S"
        string_val: "S"
        string_val: "S"
        string_val: "S"
        string_val: "Q"
        string_val: "S"
        string_val: "C"
        string_val: "S"
        string_val: "S"
        string_val: "S"
        string_val: "S"
        string_val: "S"
        string_val: "S"
        string_val: "S"
        string_val: "S"
        string_val: "S"
        string_val: "S"
        string_val: "Q"
        string_val: "S"
        string_val: "S"
        string_val: "S"
        string_val: "Q"
        string_val: "C"
        string_val: "S"
        string_val: "S"
        string_val: "S"
        string_val: "S"
        string_val: "S"
        string_val: "S"
        string_val: "S"
        string_val: "S"
        string_val: "S"
        string_val: "S"
        string_val: "S"
        string_val: "S"
        string_val: "Q"
        string_val: "S"
        string_val: "S"
        string_val: "S"
        string_val: "S"
        string_val: "S"
        string_val: "S"
        string_val: "S"
        string_val: "S"
        string_val: "S"
        string_val: "S"
        string_val: "Q"
        string_val: "S"
        string_val: "S"
        string_val: "S"
        string_val: "Q"
        string_val: "Q"
        string_val: "S"
        string_val: "S"
        string_val: "Q"
        string_val: "C"
        string_val: "S"
        string_val: "S"
        string_val: "S"
        string_val: "S"
        string_val: "S"
        string_val: "S"
        string_val: "C"
        string_val: "S"
        string_val: "S"
        string_val: "S"
        string_val: "Q"
        string_val: "Q"
        string_val: "S"
        string_val: "C"
        string_val: "S"
        string_val: "S"
        string_val: "S"
        string_val: "S"
        string_val: "S"
        string_val: "S"
        string_val: "S"
        string_val: "C"
        string_val: "S"
        string_val: "S"
        string_val: "S"
        string_val: "S"
        string_val: "S"
        string_val: "S"
        string_val: "Q"
        string_val: "S"
        string_val: "S"
        string_val: "Q"
        string_val: "S"
        string_val: "S"
        string_val: "S"
        string_val: "S"
        string_val: "C"
        string_val: "C"
        string_val: "S"
        string_val: "S"
        string_val: "S"
        string_val: "C"
        string_val: "S"
        string_val: "S"
        string_val: "S"
        string_val: "S"
        string_val: "C"
        string_val: "S"
        string_val: "S"
        string_val: "S"
        string_val: "S"
        string_val: "S"
        string_val: "C"
        string_val: "C"
        string_val: "C"
        string_val: "Q"
        string_val: "S"
        string_val: "S"
        string_val: "S"
        string_val: "S"
        string_val: "S"
        string_val: "S"
        string_val: "Q"
        string_val: "S"
        string_val: "S"
        string_val: "S"
        string_val: "S"
        string_val: "S"
        string_val: "S"
        string_val: "S"
        string_val: "S"
        string_val: "S"
        string_val: "S"
        string_val: "S"
        string_val: "S"
        string_val: "S"
        string_val: "S"
        string_val: "S"
        string_val: "S"
        string_val: "S"
        string_val: "S"
        string_val: "S"
        string_val: "S"
        string_val: "C"
        string_val: "S"
        string_val: "C"
        string_val: "S"
        string_val: "S"
        string_val: "C"
        string_val: "C"
        string_val: "S"
        string_val: "S"
        string_val: "S"
        string_val: "S"
        string_val: "S"
        string_val: "S"
        string_val: "C"
        string_val: "S"
        string_val: "C"
        string_val: "S"
        string_val: "S"
        string_val: "C"
        string_val: "S"
        string_val: "S"
        string_val: "Q"
        string_val: "S"
        string_val: "C"
        string_val: "S"
        string_val: "S"
        string_val: "Q"
        string_val: "C"
        string_val: "C"
        string_val: "S"
        string_val: "S"
        string_val: "C"
        string_val: "C"
        string_val: "S"
        string_val: "Q"
        string_val: "C"
        string_val: "S"
        string_val: "S"
        string_val: "S"
        string_val: "S"
        string_val: "S"
        string_val: "C"
        string_val: "S"
        string_val: "S"
        string_val: "Q"
        string_val: "S"
        string_val: "S"
        string_val: "S"
        string_val: "S"
        string_val: "S"
        string_val: "C"
        string_val: "S"
        string_val: "S"
        string_val: "S"
        string_val: "S"
        string_val: "S"
        string_val: "C"
        string_val: "S"
        string_val: "S"
        string_val: "S"
        string_val: "S"
        string_val: "S"
        string_val: "S"
        string_val: "C"
        string_val: "C"
        string_val: "S"
        string_val: "C"
        string_val: "S"
        string_val: "C"
        string_val: "S"
        string_val: "C"
        string_val: "S"
        string_val: "S"
        string_val: "S"
        string_val: "S"
        string_val: "S"
        string_val: "S"
        string_val: "C"
        string_val: "S"
        string_val: "S"
        string_val: "S"
        string_val: "S"
        string_val: "C"
        string_val: "S"
        string_val: "S"
        string_val: "S"
        string_val: "S"
        string_val: "S"
        string_val: "S"
        string_val: "S"
        string_val: "S"
        string_val: "S"
        string_val: "S"
        string_val: "C"
        string_val: "Q"
        string_val: "Q"
        string_val: "S"
        string_val: "Q"
        string_val: "S"
        string_val: "S"
        string_val: "S"
        string_val: "S"
        string_val: "S"
        string_val: "S"
        string_val: "S"
        string_val: "S"
        string_val: "S"
        string_val: "S"
        string_val: "S"
        string_val: "C"
        string_val: "S"
        string_val: "C"
        string_val: "S"
        string_val: "S"
        string_val: "S"
        string_val: "S"
        string_val: "S"
        string_val: "S"
        string_val: "S"
        string_val: "Q"
        string_val: "C"
        string_val: "Q"
        string_val: "S"
      }
    }
  }
}
node {
  name: "normalize_element/component_3"
  op: "Const"
  device: "/device:CPU:0"
  attr {
    key: "_output_shapes"
    value {
      list {
        shape {
          dim {
            size: 668
          }
        }
      }
    }
  }
  attr {
    key: "dtype"
    value {
      type: DT_DOUBLE
    }
  }
  attr {
    key: "value"
    value {
      tensor {
        dtype: DT_DOUBLE
        tensor_shape {
          dim {
            size: 668
          }
        }
        tensor_content: "\256\266b\177\331}.@\232\231\231\231\231\351S@\000\000\000\000\000\000*@\315\314\314\314\314\314S@333333\037@\000\000\000\000\000\000/@fffff\346\033@\t\371\240g\263j\037@33333c?@\356\353\3009#\312D@\000\000\000\000\000@7@\315\314\314\314\314pl@\000\000\000\000\000\000*@\000\000\000\000\000\000/@\315\314\314\314\314\214J@\256\266b\177\331\335 @\367\006_\230L\225\037@\232\231\231\231\231\031 @\000\000\000\000\000\000:@\270\257\003\347\214\350,@33333\0235@\000\000\000\000\000\000;@\000\000\000\000\000\000J@\367u\340\234\021\305V@\000\000\000\000\000\000\'@fffff\346\034@33333cQ@\000\000\000\000\000\000\037@\000\000\000\000\000\200L@\254\255\330_v?L@\000\000\000\000\000\200A@33333\263=@$(~\214\271[6@\356\353\3009#\312D@\000\000\000\000\000\000*@\000\000\000\000\000`R@333333E@\353\3426\032\300{/@\000\000\000\000\000\000*@\000\000\000\000\000\000*@\232\231\231\231\231\0310@\221\017z6\253\022S@\315\314\314\314\314\214(@\000\000\000\000\000\000\035@\000\000\000\000\000\000\024@\t\371\240g\263j\037@\000\000\000\000\000\000*@\000\000\000\000\000\000*@\t\371\240g\263\352\034@\000\000\000\000\000\000-@\315\314\314\314\314L)@\315\314\314\314\314\214:@\000\000\000\000\000\200@@\000\000\000\000\000\000\000\000\000\000\000\000\000\000%@\000\000\000\000\000\2003@\017\013\265\246yw9@33333\263\037@33333S!@\000\000\000\000\000\000:@fffff&8@33333s\"@\000\000\000\000\000\000\037@\000\000\000\000\000 =@33333\263\037@\017\013\265\246yw9@\315\314\314\314\314pl@fffff\346;@/n\243\001\274\233d@\000\000\000\000\000\000*@\017\013\265\246y\3673@\000\000\000\000\000\000*@\256\266b\177\331}.@\t\212\037c\356vT@\232\231\231\231\231Q\\@\367u\340\234\021\221S@\000\000\000\000\000\200L@\000\000\000\000\000\000:@\315\314\314\314\314\214\037@33333\263=@\315\314\314\314\314\314S@\000\000\000\000\000\000*@fffff\266<@\000\000\000\000\000\000\037@\232\231\231\231\231\031 @]m\305\376\262\373\031@\000\000\000\000\000\000:@\000\000\000\000\000\000*@\000\000\000\000\000\000;@fffff\346\034@/n\243\001\274\233d@\232\231\231\231\231\3112@\000\000\000\000\000\300Q@\000\000\000\000\000\000/@\000\000\000\000\000\000\000\000]m\305\376\262\373\035@fffffF?@\000\000\000\000\000\000\037@\000\000\000\000\000`W@fffff\2064@\000\000\000\000\000\2003@\000\000\000\000\000\300A@\000\000\000\000\000\000:@333333\036@\000\000\000\000\000fp@\000\000\000\000\000\300A@\t\371\240g\263\352\034@\210\205Z\323\274SA@\000\000\000\000\000\000\037@\000\000\000\000\000\200C@\315\314\314\314\314\314C@\232\231\231\231\231\271+@\000\000\000\000\000\000>@\000\000\000\000\000`R@\232\231\231\231\231\031\037@fffff\336T@\000\000\000\000\000\000%@\000\000\000\000\000\000#@\315\314\314\314\314\214J@\000\000\000\000\000\300;@\367\006_\230L\225\037@33333c:@\367\006_\230L\225\037@\000\000\000\000\000@:@\000\000\000\000\000\000*@\000\000\000\000\000`R@\232\231\231\231\231\031 @\221\017z6\253.S@\000\000\000\000\000\000*@\243#\271\374\207\270[@TR\'\240\211\260N@\000\000\000\000\000pj@\367\006_\230L\225\037@\273\270\215\006\360FJ@\000\000\000\000\000\000:@\243\222:\001M\204\037@33333\263\037@\315\314\314\314\314\214J@\000\000\000\000\000@P@\361\364JY\206\270;@\000\000\000\000\000\200\037@33333\263\"@\000\000\000\000\000\0005@fffffF?@\000\000\000\000\000\000\037@\000\000\000\000\000\000*@\232\231\231\231\231\231\036@\000\000\000\000\000\000\000\000\000\000\000\000\000pp@\232\231\231\231\2319[@\232\231\231\231\231\231 @\000\000\000\000\000\000*@\000\000\000\000\000\000#@\315\314\314\314\314,#@\232\231\231\231\231\351S@\000\000\000\000\000\000^@\000\000\000\000\000\000+@\000\000\000\000\000\000J@\000\000\000\000\000@:@\220\240\3701\346.\037@\000\000\000\000\000\000\037@\000\000\000\000\000\300\031@\315\314\314\314\314\3141@\t\371\240g\263\352\034@\232\231\231\231\231\3112@\232\231\231\231\231\031\037@\036\026jM\363\256#@vq\033\r\340\3559@\000\000\000\000\000\300A@\000\000\000\000\000\000:@\232\231\231\231\231\031 @\232\231\231\231\231\031 @\000\000\000\000\000@\035@\232\231\231\231\231\031 @\212\216\344\362\037B3@\000\000\000\000\000\000\000\000\000\000\000\000\000\000%@\205|\320\263Y\225+@\367\006_\230L\225\037@\000\000\000\000\000\000:@\232\231\231\231\231\031 @33333S!@\232\231\231\231\231\351S@fffff&\037@\232\231\231\231\231\361b@\000\000\000\000\000\3002@\315\314\314\314\314\214:@33333S!@\000\000\000\000\000\0002@\367\006_\230L\225\037@\000\000\000\000\000\0002@33333\2630@\000\000\000\000\000@:@\000\000\000\000\000\320`@\000\000\000\000\000\000\037@fffff\2066@\315\314\314\314\314jj@\232\231\231\231\231\031 @33333\263\037@\t\371\240g\263j\037@33333\363K@fffff\346;@\t\371\240g\263\352\034@\367\006_\230L\225\037@\000\000\000\000\000\000\000\000\315\314\314\314\314\014\020@\232\231\231\231\231\0310@o\360\205\311T}S@\232\231\231\231\231\031 @\000\000\000\000\000\000*@\367\006_\230L\225\037@33333\263\037@\000\000\000\000\000\000:@\000\000\000\000\000\000*@\356\353\3009#\312D@33333\0235@33333\233Z@\232\231\231\231\2319[@\205|\320\263Y\325*@\315\314\314\314\314\214:@!\037\364lV\275I@\212\216\344\362\037\022>@33333\363\"@\232\231\231\231\231\031 @8\370\302d\252Pb@\000\000\000\000\000\200C@\025\035\311\345?D&@\000\000\000\000\000\000:@\315\314\314\314\314\214:@33333s7@\270\257\003\347\214\350,@fffff\346;@\212\216\344\362\037\262>@fffff&8@\000\000\000\000\000\000%@\000\000\000\000\000\200V@\000\000\000\000\000\000%@TR\'\240\211\300H@33333sG@]m\305\376\262\373\035@\000\000\000\000\000`B@\232\231\231\231\231\031 @\000\000\000\000\000\200K@33333\263\037@\254\255\330_v?I@\000\000\000\000\000\300@@<\275R\226!\312T@\361\364JY\206\270;@\243\222:\001M\204\037@33333\2234@33333\263(@\367\006_\230L\225\037@\000\000\000\000\000\200V@333333\034@\000\000\000\000\000\0007@fffff\2269@\000\000\000\000\000\000\035@\220\240\3701\346.\037@\000\000\000\000\000\200\034@\000\000\000\000\000\000:@\232\231\231\231\231\031 @\000\000\000\000\000\000\037@\000\000\000\000\000\000*@\000\000\000\000\000\000*@33333\263\037@\000\000\000\000\000\0007@\232\231\231\231\231\231\036@\367u\340\234\021\305V@\000\000\000\000\000\000\035@33333sG@8\370\302d\252\360n@fffffF?@33333S!@\000\000\000\000\000\000+@\367\006_\230L\225\037@\000\000\000\000\000\000\035@33333\2630@\232\231\231\231\231\031 @33333S!@\000\000\000\000\000\000:@fffffF?@\232\231\231\231\231\031\037@\000\000\000\000\000\000\035@{\203/L\246\352,@33333S!@\315\314\314\314\314\014)@33333\263\037@]m\305\376\262\373\035@\367\006_\230L\225\037@\000\000\000\000\000\000\037@\220\240\3701\346.\034@\367\006_\230L\225\037@33333S!@\277\016\2343\242\002\200@\000\000\000\000\000\000\037@HP\374\030s\027.@TR\'\240\211\200B@333333\036@\000\000\000\000\000\000:@\000\000\000\000\000\000\037@\315\314\314\314\314jj@\000\000\000\000\000\000*@fffff&8@\000\000\000\000\000\000.@33333\263!@\000\000\000\000\000\000/@\342\351\225\262\014\261#@\t\371\240g\263j\037@\000\000\000\000\0000A@TR\'\240\211\270K@fffff\2064@\t\371\240g\263\352\034@\367\006_\230L\225\037@33333sG@fffff\346\034@fffff64@\000\000\000\000\000\300)@\000\000\000\000\000\0005@!\037\364lV\375L@\232\231\231\231\231\031 @33333\363(@\243\222:\001M\204\037@fffff64@\254\255\330_v?L@\000\000\000\000\000\000%@\000\000\000\000\000\000J@\367\006_\230L\225\037@\000\000\000\000\000\000%@\361\364JY\206H:@\270\257\003\347\214\350,@\361\364JY\206\270;@\000\000\000\000\000\000*@\367u\340\234\021\221S@fffff\346\033@\000\000\000\000\000\320`@fffffRS@333333\036@\000\000\000\000\000\000%@\315\314\314\314\314.c@\t\371\240g\263\352\034@\036\026jM\363N!@\000\000\000\000\000\000-@{\203/L\246\352,@\000\000\000\000\000\000\035@\000\000\000\000\000\000>@\000\000\000\000\000@7@o\360\205\311T}S@\000\000\000\000\000\000\037@\000\000\000\000\000\0005@33333\2234@\t\371\240g\263\352\034@\315\314\314\314\314\314S@33333\263(@\232\231\231\231\231\031\037@$(~\214\271[6@\000\000\000\000\000\000:@\000\000\000\000\000\000\035@fffff\346\036@\000\000\000\000\000\000\037@b\241\3264\357\270k@\232\231\231\231\231I:@\000\000\000\000\000\000/@\000\000\000\000\000\000*@\000\000\000\000\000`B@33333sG@\000\000\000\000\000\200\034@33333\263/@\361\364JY\206\270;@\277\016\2343\242\002\200@\270\257\003\347\214\350,@33333\263\037@33333\263(@\000\000\000\000\000\200@@\000\000\000\000\000 =@\000\000\000\000\000\000%@\t\371\240g\263j\037@\000\000\000\000\000pp@\000\000\000\000\000\300;@fffffRS@\000\000\000\000\000\000%@\212\216\344\362\037\262>@\232\231\231\231\231\031\037@HP\374\030s\367\"@\232\231\231\231\231\031 @33333\223(@\000\000\000\000\000\000*@33333\363\036@\000\000\000\000\000\0002@\t\371\240g\263j\037@\232\231\231\231\231\031 @\367\006_\230L\225\037@\000\000\000\000\000\000\037@\000\000\000\000\000\200\034@33333cQ@\000\000\000\000\000fp@33333\263\037@\277\016\2343\242\002\200@\000\000\000\000\000\000:@\232\231\231\231\231\031.@fffff\0066@\000\000\000\000\000\000\037@\367\006_\230L\225\037@\000\000\000\000\000`W@\315\314\314\314\314pl@\367\006_\230L\225\037@33333SQ@\000\000\000\000\000\000%@\232\231\231\231\231\0310@\315\314\314\314\314\214:@\000\000\000\000\000\000=@\000\000\000\000\000\000\037@\000\000\000\000\000\200>@\270\257\003\347\214\350,@\000\000\000\000\000\000\"@\000\000\000\000\000\000*@\000\000\000\000\000\000\000\000\000\000\000\000\000@@@\367\006_\230L\225\037@\367\006_\230L\225\037@\342\351\225\262\014Q @\315\314\314\314\314\214:@\232\231\231\231\231\031 @\367\006_\230L\225\037@\000\000\000\000\000 =@\220\240\3701\346.\037@\000\000\000\000\000\330C@ffffff1@fffff&8@TR\'\240\211\200B@\000\000\000\000\000\000#@\000\000\000\000\000\330C@\017\013\265\246y\3673@\367\006_\230L\225\037@\000\000\000\000\000@4@\232\231\231\231\231\031/@333333\034@33333S!@fffff\2064@\232\231\231\231\231\0310@\315\314\314\314\314\214:@\000\000\000\000\000\000\'@fffff&8@\000\000\000\000\000\000:@\232\231\231\231\231\0310@\017\013\265\246yw9@\000\000\000\000\000@:@\367\006_\230L\225\037@\t\371\240g\263j\037@\000\000\000\000\000\3002@\232\231\231\231\231\031\037@333333\034@\t\371\240g\263j\037@\000\000\000\000\000\000\033@\367\006_\230L\225\037@\000\000\000\000\000\000%@\000\000\000\000\000\200>@\000\000\000\000\000\000\037@\000\000\000\000\000\000/@fffff\346;@\025\035\311\345?D&@\220\240\3701\346\356\036@\000\000\000\000\000\300H@\000\000\000\000\000\000:@\000\000\000\000\0000A@\000\000\000\000\000\330C@\232\231\231\231\231\031 @\000\000\000\000\000\000*@\232\231\231\231\231\031 @\256\266b\177\331}.@\000\000\000\000\000\000J@\000\000\000\000\000\000#@\000\000\000\000\000`R@\000\000\000\000\000\000\037@\000\000\000\000\000\000\037@\367\006_\230L\225\037@<\275R\226!\322Q@\000\000\000\000\000pp@\321\221\\\376C\364`@\000\000\000\000\000\000%@\000\000\000\000\000\200@@\000\000\000\000\000\000-@\232\231\231\231\231\031 @\000\000\000\000\000\000:@\367\006_\230L\225\037@\000\000\000\000\000\000*@\367\006_\230L\225\037@\000\000\000\000\0000A@\367\006_\230L\225\037@\232\231\231\231\231\031 @\000\000\000\000\000\200/@\220\240\3701\346\356\036@\000\000\000\000\000\000*@\232\231\231\231\231\031 @\000\000\000\000\000\000\037@\000\000\000\000\000\000%@\000\000\000\000\000\000-@\t\371\240g\263j\037@fffff\336T@\243#\271\374\207\270[@fffff\346\034@\315\314\314\314\314\214:@\367\006_\230L\225\037@\000\000\000\000\000\000\000\000\212\216\344\362\037B3@\000\000\000\000\000\000-@\000\000\000\000\000\0005@\000\000\000\000\000\200C@33333\263/@\212\216\344\362\037B3@33333\263\"@\000\000\000\000\000\200<@33333c?@\232\231\231\231\231\031 @\000\000\000\000\000\000J@\315\314\314\314\314\314S@\221\017z6\253FV@\273\270\215\006\360vL@\220\240\3701\346\356\036@HP\374\030sW$@33333c?@\232\231\231\231\231\0310@\315\314\314\314\314.c@\000\000\000\000\000pp@\315\314\314\314\314\3141@{\203/L\246\352 @\000\000\000\000\000\000\'@\000\000\000\000\000\000%@\000\000\000\000\000\200V@fffff&8@333333.@\000\000\000\000\000\000*@\232\231\231\231\231\231\036@\000\000\000\000\000\000*@\232\231\231\231\231\031 @\367\006_\230L\225\037@\232\231\231\231\231\031 @\367\006_\230L\225\037@\000\000\000\000\000\0005@\000\000\000\000\000\000*@\000\000\000\000\000\000#@\367\006_\230L\225\037@\254\255\330_v?L@33333cQ@\367\006_\230L\225\037@\036\026jM\363\316 @{\203/L\246\352,@\326\305m4\2007\034@\000\000\000\000\000\300A@33333cQ@HP\374\030s7,@TR\'\240\211\300H@\321\221\\\376C\364`@33333sG@\000\000\000\000\000\000\035@333333\036@\315\314\314\314\314\214:@\000\000\000\000\000\000\000\000333333\034@\353\3426\032\300{&@33333\363K@\232\231\231\231\231Q\\@\315\314\314\314\314\214:@\367\006_\230L\225\037@\t\371\240g\263\352\034@\315\314\314\314\314\254#@\315\314\314\314\314\214:@\000\000\000\000\000\000\037@\000\000\000\000\000\000J@\273\270\215\006\360vL@\000\000\000\000\000\000\037@33333\263\037@\000\000\000\000\000\000\033@\353\3426\032\300{/@\232\231\231\231\231Q\\@\t\371\240g\263j\037@\232\231\231\231\231\031\037@33333\263=@\t\371\240g\263\352\034@333333\034@\000\000\000\000\000\000\037@fffff\346\034@33333S!@\326\305m4\2007\034@\000\000\000\000\000\000*@fffff\246#@\315\314\314\314\314\214G@\367\006_\230L\225\037@\232\231\231\231\231\031 @fffff\266S@\220\240\3701\346\356\036@\000\000\000\000\000\000#@\000\000\000\000\000\000*@\000\000\000\000\000\000%@\000\000\000\000\000\000*@\000\000\000\000\000\000%@fffff\346\034@\000\000\000\000\000\000\000\000\000\000\000\000\000\000%@\000\000\000\000\000\000*@\000\000\000\000\000\000\000\000\000\000\000\000\000\200K@fffff\346\034@\000\000\000\000\000\200V@\000\000\000\000\000\240U@fffff\226N@fffff\246P@\273\270\215\006\360FJ@\000\000\000\000\000\000,@\212\216\344\362\037B3@\270\257\003\347\214\010!@\000\000\000\000\000\300Q@fffff\346\034@\000\000\000\000\000@4@\000\000\000\000\000\020D@\232\231\231\231\231\031\037@\315\314\314\314\314\214:@33333S!@33333\0235@33333\263\037@\t\371\240g\263j\037@\000\000\000\000\000\240U@\000\000\000\000\000`R@8\370\302d\252Pb@\315\314\314\314\314,#@\315\314\314\314\314\214J@\232\231\231\231\231\031 @\000\000\000\000\000\000%@\243#\271\374\207\270[@\000\000\000\000\000@C@33333cQ@\000\000\000\000\000\000:@fffff\266S@\367\006_\230L\225\037@\000\000\000\000\000\000^@\232\231\231\231\231\031 @\000\000\000\000\000\200C@\232\231\231\231\231\031 @\000\000\000\000\000\330C@\321\221\\\376C\364`@\326\305m4\200\367\036@\243\222:\001M\204\037@\232\231\231\231\2319 @\000\000\000\000\000 =@fffff\356I@\000\000\000\000\000\000\035@33333\363(@\232\231\231\231\231\231\036@\232\231\231\231\231I:@\220\240\3701\346.\037@\000\000\000\000\000\000:@33333\263\037@fffff\346;@\315\314\314\314\314jj@\232\231\231\231\231\031\037@\000\000\000\000\000\320R@\000\000\000\000\000\000*@\315\314\314\314\314l!@\000\000\000\000\000@:@\000\000\000\000\000\000%@\000\000\000\000\000\000I@\315\314\314\314\314\314/@\000\000\000\000\000@P@\000\000\000\000\000\0005@33333\263\037@\243\222:\001M\204\036@33333\233Z@\000\000\000\000\000\000\037@\t\371\240g\263j\037@"
      }
    }
  }
}
node {
  name: "normalize_element/component_4"
  op: "Const"
  device: "/device:CPU:0"
  attr {
    key: "_output_shapes"
    value {
      list {
        shape {
          dim {
            size: 668
          }
        }
      }
    }
  }
  attr {
    key: "dtype"
    value {
      type: DT_INT64
    }
  }
  attr {
    key: "value"
    value {
      tensor {
        dtype: DT_INT64
        tensor_shape {
          dim {
            size: 668
          }
        }
        tensor_content: "\001\000\000\000\000\000\000\000\001\000\000\000\000\000\000\000\000\000\000\000\000\000\000\000\000\000\000\000\000\000\000\000\000\000\000\000\000\000\000\000\000\000\000\000\000\000\000\000\000\000\000\000\000\000\000\000\000\000\000\000\000\000\000\000\005\000\000\000\000\000\000\000\002\000\000\000\000\000\000\000\000\000\000\000\000\000\000\000\000\000\000\000\000\000\000\000\000\000\000\000\000\000\000\000\001\000\000\000\000\000\000\000\000\000\000\000\000\000\000\000\000\000\000\000\000\000\000\000\000\000\000\000\000\000\000\000\000\000\000\000\000\000\000\000\000\000\000\000\000\000\000\000\000\000\000\000\000\000\000\000\001\000\000\000\000\000\000\000\001\000\000\000\000\000\000\000\000\000\000\000\000\000\000\000\000\000\000\000\000\000\000\000\000\000\000\000\000\000\000\000\000\000\000\000\000\000\000\000\002\000\000\000\000\000\000\000\000\000\000\000\000\000\000\000\000\000\000\000\000\000\000\000\000\000\000\000\000\000\000\000\000\000\000\000\000\000\000\000\000\000\000\000\000\000\000\000\001\000\000\000\000\000\000\000\002\000\000\000\000\000\000\000\000\000\000\000\000\000\000\000\000\000\000\000\000\000\000\000\000\000\000\000\000\000\000\000\002\000\000\000\000\000\000\000\000\000\000\000\000\000\000\000\000\000\000\000\000\000\000\000\000\000\000\000\000\000\000\000\000\000\000\000\000\000\000\000\000\000\000\000\000\000\000\000\000\000\000\000\000\000\000\000\000\000\000\000\000\000\000\000\000\000\000\000\000\000\000\000\000\000\000\000\000\000\000\000\000\000\000\000\000\000\000\000\001\000\000\000\000\000\000\000\000\000\000\000\000\000\000\000\000\000\000\000\000\000\000\000\000\000\000\000\000\000\000\000\000\000\000\000\000\000\000\000\000\000\000\000\000\000\000\000\000\000\000\000\000\000\000\000\001\000\000\000\000\000\000\000\001\000\000\000\000\000\000\000\000\000\000\000\000\000\000\000\000\000\000\000\000\000\000\000\000\000\000\000\000\000\000\000\000\000\000\000\000\000\000\000\000\000\000\000\000\000\000\000\000\000\000\000\000\000\000\000\001\000\000\000\000\000\000\000\000\000\000\000\000\000\000\000\001\000\000\000\000\000\000\000\000\000\000\000\000\000\000\000\004\000\000\000\000\000\000\000\001\000\000\000\000\000\000\000\000\000\000\000\000\000\000\000\000\000\000\000\000\000\000\000\002\000\000\000\000\000\000\000\001\000\000\000\000\000\000\000\002\000\000\000\000\000\000\000\002\000\000\000\000\000\000\000\000\000\000\000\000\000\000\000\000\000\000\000\000\000\000\000\000\000\000\000\000\000\000\000\000\000\000\000\000\000\000\000\001\000\000\000\000\000\000\000\001\000\000\000\000\000\000\000\000\000\000\000\000\000\000\000\000\000\000\000\000\000\000\000\000\000\000\000\000\000\000\000\000\000\000\000\000\000\000\000\000\000\000\000\000\000\000\000\000\000\000\000\000\000\000\000\000\000\000\000\000\000\000\000\000\000\000\000\000\000\000\000\000\000\000\000\000\000\000\000\002\000\000\000\000\000\000\000\000\000\000\000\000\000\000\000\002\000\000\000\000\000\000\000\001\000\000\000\000\000\000\000\000\000\000\000\000\000\000\000\000\000\000\000\000\000\000\000\002\000\000\000\000\000\000\000\002\000\000\000\000\000\000\000\001\000\000\000\000\000\000\000\001\000\000\000\000\000\000\000\001\000\000\000\000\000\000\000\000\000\000\000\000\000\000\000\001\000\000\000\000\000\000\000\000\000\000\000\000\000\000\000\002\000\000\000\000\000\000\000\000\000\000\000\000\000\000\000\000\000\000\000\000\000\000\000\000\000\000\000\000\000\000\000\000\000\000\000\000\000\000\000\001\000\000\000\000\000\000\000\000\000\000\000\000\000\000\000\000\000\000\000\000\000\000\000\000\000\000\000\000\000\000\000\000\000\000\000\000\000\000\000\000\000\000\000\000\000\000\000\000\000\000\000\000\000\000\000\000\000\000\000\000\000\000\000\000\000\000\000\000\000\000\000\000\000\000\000\000\000\000\000\002\000\000\000\000\000\000\000\000\000\000\000\000\000\000\000\000\000\000\000\000\000\000\000\000\000\000\000\000\000\000\000\001\000\000\000\000\000\000\000\000\000\000\000\000\000\000\000\000\000\000\000\000\000\000\000\000\000\000\000\000\000\000\000\000\000\000\000\000\000\000\000\000\000\000\000\000\000\000\000\000\000\000\000\000\000\000\000\001\000\000\000\000\000\000\000\002\000\000\000\000\000\000\000\000\000\000\000\000\000\000\000\001\000\000\000\000\000\000\000\000\000\000\000\000\000\000\000\000\000\000\000\000\000\000\000\000\000\000\000\000\000\000\000\000\000\000\000\000\000\000\000\002\000\000\000\000\000\000\000\000\000\000\000\000\000\000\000\000\000\000\000\000\000\000\000\001\000\000\000\000\000\000\000\000\000\000\000\000\000\000\000\002\000\000\000\000\000\000\000\000\000\000\000\000\000\000\000\000\000\000\000\000\000\000\000\000\000\000\000\000\000\000\000\000\000\000\000\000\000\000\000\002\000\000\000\000\000\000\000\000\000\000\000\000\000\000\000\000\000\000\000\000\000\000\000\000\000\000\000\000\000\000\000\000\000\000\000\000\000\000\000\000\000\000\000\000\000\000\000\002\000\000\000\000\000\000\000\002\000\000\000\000\000\000\000\000\000\000\000\000\000\000\000\000\000\000\000\000\000\000\000\001\000\000\000\000\000\000\000\000\000\000\000\000\000\000\000\000\000\000\000\000\000\000\000\000\000\000\000\000\000\000\000\000\000\000\000\000\000\000\000\000\000\000\000\000\000\000\000\000\000\000\000\000\000\000\000\000\000\000\000\000\000\000\000\000\000\000\000\000\000\000\000\000\000\000\000\000\000\000\000\000\000\000\000\000\000\000\000\001\000\000\000\000\000\000\000\000\000\000\000\000\000\000\000\000\000\000\000\000\000\000\000\000\000\000\000\000\000\000\000\000\000\000\000\000\000\000\000\001\000\000\000\000\000\000\000\000\000\000\000\000\000\000\000\000\000\000\000\000\000\000\000\000\000\000\000\000\000\000\000\000\000\000\000\000\000\000\000\001\000\000\000\000\000\000\000\000\000\000\000\000\000\000\000\000\000\000\000\000\000\000\000\001\000\000\000\000\000\000\000\000\000\000\000\000\000\000\000\002\000\000\000\000\000\000\000\001\000\000\000\000\000\000\000\000\000\000\000\000\000\000\000\000\000\000\000\000\000\000\000\000\000\000\000\000\000\000\000\000\000\000\000\000\000\000\000\000\000\000\000\000\000\000\000\001\000\000\000\000\000\000\000\001\000\000\000\000\000\000\000\001\000\000\000\000\000\000\000\000\000\000\000\000\000\000\000\000\000\000\000\000\000\000\000\001\000\000\000\000\000\000\000\000\000\000\000\000\000\000\000\000\000\000\000\000\000\000\000\000\000\000\000\000\000\000\000\000\000\000\000\000\000\000\000\002\000\000\000\000\000\000\000\000\000\000\000\000\000\000\000\000\000\000\000\000\000\000\000\000\000\000\000\000\000\000\000\000\000\000\000\000\000\000\000\000\000\000\000\000\000\000\000\000\000\000\000\000\000\000\000\000\000\000\000\000\000\000\000\000\000\000\000\000\000\000\000\000\000\000\000\000\000\000\000\000\000\000\000\000\000\000\000\000\000\000\000\000\000\000\000\000\000\000\000\000\000\000\000\002\000\000\000\000\000\000\000\001\000\000\000\000\000\000\000\000\000\000\000\000\000\000\000\000\000\000\000\000\000\000\000\001\000\000\000\000\000\000\000\000\000\000\000\000\000\000\000\000\000\000\000\000\000\000\000\000\000\000\000\000\000\000\000\000\000\000\000\000\000\000\000\000\000\000\000\000\000\000\000\000\000\000\000\000\000\000\000\001\000\000\000\000\000\000\000\001\000\000\000\000\000\000\000\000\000\000\000\000\000\000\000\000\000\000\000\000\000\000\000\002\000\000\000\000\000\000\000\000\000\000\000\000\000\000\000\002\000\000\000\000\000\000\000\000\000\000\000\000\000\000\000\000\000\000\000\000\000\000\000\000\000\000\000\000\000\000\000\000\000\000\000\000\000\000\000\000\000\000\000\000\000\000\000\000\000\000\000\000\000\000\000\002\000\000\000\000\000\000\000\000\000\000\000\000\000\000\000\001\000\000\000\000\000\000\000\000\000\000\000\000\000\000\000\001\000\000\000\000\000\000\000\000\000\000\000\000\000\000\000\000\000\000\000\000\000\000\000\000\000\000\000\000\000\000\000\000\000\000\000\000\000\000\000\000\000\000\000\000\000\000\000\000\000\000\000\000\000\000\000\002\000\000\000\000\000\000\000\000\000\000\000\000\000\000\000\000\000\000\000\000\000\000\000\000\000\000\000\000\000\000\000\000\000\000\000\000\000\000\000\003\000\000\000\000\000\000\000\000\000\000\000\000\000\000\000\000\000\000\000\000\000\000\000\000\000\000\000\000\000\000\000\000\000\000\000\000\000\000\000\000\000\000\000\000\000\000\000\000\000\000\000\000\000\000\000\000\000\000\000\000\000\000\000\000\000\000\000\000\000\000\000\000\000\000\000\000\000\000\000\000\000\000\000\000\000\000\000\001\000\000\000\000\000\000\000\000\000\000\000\000\000\000\000\000\000\000\000\000\000\000\000\000\000\000\000\000\000\000\000\002\000\000\000\000\000\000\000\001\000\000\000\000\000\000\000\002\000\000\000\000\000\000\000\000\000\000\000\000\000\000\000\000\000\000\000\000\000\000\000\000\000\000\000\000\000\000\000\000\000\000\000\000\000\000\000\002\000\000\000\000\000\000\000\000\000\000\000\000\000\000\000\000\000\000\000\000\000\000\000\000\000\000\000\000\000\000\000\002\000\000\000\000\000\000\000\000\000\000\000\000\000\000\000\000\000\000\000\000\000\000\000\000\000\000\000\000\000\000\000\000\000\000\000\000\000\000\000\000\000\000\000\000\000\000\000\000\000\000\000\000\000\000\000\000\000\000\000\000\000\000\000\000\000\000\000\000\000\000\000\000\000\000\000\000\000\000\000\000\000\000\000\000\000\000\000\000\000\000\000\000\000\000\000\000\000\000\000\000\000\000\000\000\000\000\000\000\000\000\000\000\000\000\000\000\000\000\000\000\000\000\000\000\000\000\000\001\000\000\000\000\000\000\000\000\000\000\000\000\000\000\000\000\000\000\000\000\000\000\000\000\000\000\000\000\000\000\000\001\000\000\000\000\000\000\000\000\000\000\000\000\000\000\000\001\000\000\000\000\000\000\000\000\000\000\000\000\000\000\000\000\000\000\000\000\000\000\000\000\000\000\000\000\000\000\000\000\000\000\000\000\000\000\000\000\000\000\000\000\000\000\000\003\000\000\000\000\000\000\000\000\000\000\000\000\000\000\000\002\000\000\000\000\000\000\000\000\000\000\000\000\000\000\000\000\000\000\000\000\000\000\000\002\000\000\000\000\000\000\000\000\000\000\000\000\000\000\000\001\000\000\000\000\000\000\000\000\000\000\000\000\000\000\000\000\000\000\000\000\000\000\000\001\000\000\000\000\000\000\000\000\000\000\000\000\000\000\000\000\000\000\000\000\000\000\000\000\000\000\000\000\000\000\000\002\000\000\000\000\000\000\000\000\000\000\000\000\000\000\000\000\000\000\000\000\000\000\000\000\000\000\000\000\000\000\000\000\000\000\000\000\000\000\000\000\000\000\000\000\000\000\000\002\000\000\000\000\000\000\000\000\000\000\000\000\000\000\000\000\000\000\000\000\000\000\000\000\000\000\000\000\000\000\000\000\000\000\000\000\000\000\000\000\000\000\000\000\000\000\000\000\000\000\000\000\000\000\000\001\000\000\000\000\000\000\000\000\000\000\000\000\000\000\000\000\000\000\000\000\000\000\000\001\000\000\000\000\000\000\000\000\000\000\000\000\000\000\000\000\000\000\000\000\000\000\000\001\000\000\000\000\000\000\000\000\000\000\000\000\000\000\000\000\000\000\000\000\000\000\000\000\000\000\000\000\000\000\000\000\000\000\000\000\000\000\000\000\000\000\000\000\000\000\000\000\000\000\000\000\000\000\000\000\000\000\000\000\000\000\000\002\000\000\000\000\000\000\000\000\000\000\000\000\000\000\000\000\000\000\000\000\000\000\000\000\000\000\000\000\000\000\000\000\000\000\000\000\000\000\000\002\000\000\000\000\000\000\000\000\000\000\000\000\000\000\000\000\000\000\000\000\000\000\000\000\000\000\000\000\000\000\000\000\000\000\000\000\000\000\000\000\000\000\000\000\000\000\000\000\000\000\000\000\000\000\000\000\000\000\000\000\000\000\000\000\000\000\000\000\000\000\000\001\000\000\000\000\000\000\000\002\000\000\000\000\000\000\000\000\000\000\000\000\000\000\000\000\000\000\000\000\000\000\000\000\000\000\000\000\000\000\000\001\000\000\000\000\000\000\000\000\000\000\000\000\000\000\000\000\000\000\000\000\000\000\000\000\000\000\000\000\000\000\000\001\000\000\000\000\000\000\000\001\000\000\000\000\000\000\000\000\000\000\000\000\000\000\000\000\000\000\000\000\000\000\000\002\000\000\000\000\000\000\000\002\000\000\000\000\000\000\000\001\000\000\000\000\000\000\000\000\000\000\000\000\000\000\000\000\000\000\000\000\000\000\000\000\000\000\000\000\000\000\000\000\000\000\000\000\000\000\000\000\000\000\000\000\000\000\000\001\000\000\000\000\000\000\000\000\000\000\000\000\000\000\000\000\000\000\000\000\000\000\000\000\000\000\000\000\000\000\000\000\000\000\000\000\000\000\000\000\000\000\000\000\000\000\000\000\000\000\000\000\000\000\000\000\000\000\000\000\000\000\000\000\000\000\000\000\000\000\000\002\000\000\000\000\000\000\000\002\000\000\000\000\000\000\000\000\000\000\000\000\000\000\000\000\000\000\000\000\000\000\000\000\000\000\000\000\000\000\000\000\000\000\000\000\000\000\000\002\000\000\000\000\000\000\000\000\000\000\000\000\000\000\000\000\000\000\000\000\000\000\000\000\000\000\000\000\000\000\000\000\000\000\000\000\000\000\000\000\000\000\000\000\000\000\000\000\000\000\000\000\000\000\000\000\000\000\000\000\000\000\000\000\000\000\000\000\000\000\000\000\000\000\000\000\000\000\000\002\000\000\000\000\000\000\000\000\000\000\000\000\000\000\000\000\000\000\000\000\000\000\000\001\000\000\000\000\000\000\000\000\000\000\000\000\000\000\000\000\000\000\000\000\000\000\000\000\000\000\000\000\000\000\000\001\000\000\000\000\000\000\000\000\000\000\000\000\000\000\000\000\000\000\000\000\000\000\000\000\000\000\000\000\000\000\000\000\000\000\000\000\000\000\000\000\000\000\000\000\000\000\000\000\000\000\000\000\000\000\000\005\000\000\000\000\000\000\000\000\000\000\000\000\000\000\000\005\000\000\000\000\000\000\000\000\000\000\000\000\000\000\000\000\000\000\000\000\000\000\000\002\000\000\000\000\000\000\000\000\000\000\000\000\000\000\000\001\000\000\000\000\000\000\000\000\000\000\000\000\000\000\000\000\000\000\000\000\000\000\000\001\000\000\000\000\000\000\000\000\000\000\000\000\000\000\000\000\000\000\000\000\000\000\000\000\000\000\000\000\000\000\000\001\000\000\000\000\000\000\000\001\000\000\000\000\000\000\000\000\000\000\000\000\000\000\000\000\000\000\000\000\000\000\000\000\000\000\000\000\000\000\000\000\000\000\000\000\000\000\000\000\000\000\000\000\000\000\000\001\000\000\000\000\000\000\000\001\000\000\000\000\000\000\000\000\000\000\000\000\000\000\000\000\000\000\000\000\000\000\000\001\000\000\000\000\000\000\000\000\000\000\000\000\000\000\000\000\000\000\000\000\000\000\000\000\000\000\000\000\000\000\000\000\000\000\000\000\000\000\000\000\000\000\000\000\000\000\000\000\000\000\000\000\000\000\000\000\000\000\000\000\000\000\000\000\000\000\000\000\000\000\000\000\000\000\000\000\000\000\000\002\000\000\000\000\000\000\000\002\000\000\000\000\000\000\000\000\000\000\000\000\000\000\000\002\000\000\000\000\000\000\000\002\000\000\000\000\000\000\000\002\000\000\000\000\000\000\000\001\000\000\000\000\000\000\000\000\000\000\000\000\000\000\000\000\000\000\000\000\000\000\000\000\000\000\000\000\000\000\000\002\000\000\000\000\000\000\000\000\000\000\000\000\000\000\000\000\000\000\000\000\000\000\000\000\000\000\000\000\000\000\000\000\000\000\000\000\000\000\000\000\000\000\000\000\000\000\000\000\000\000\000\000\000\000\000\000\000\000\000\000\000\000\000\002\000\000\000\000\000\000\000\000\000\000\000\000\000\000\000\000\000\000\000\000\000\000\000\001\000\000\000\000\000\000\000\000\000\000\000\000\000\000\000\000\000\000\000\000\000\000\000\000\000\000\000\000\000\000\000\000\000\000\000\000\000\000\000\000\000\000\000\000\000\000\000\000\000\000\000\000\000\000\000\003\000\000\000\000\000\000\000\000\000\000\000\000\000\000\000\000\000\000\000\000\000\000\000\000\000\000\000\000\000\000\000\000\000\000\000\000\000\000\000\000\000\000\000\000\000\000\000\000\000\000\000\000\000\000\000\000\000\000\000\000\000\000\000\000\000\000\000\000\000\000\000\000\000\000\000\000\000\000\000\000\000\000\000\000\000\000\000\000\000\000\000\000\000\000\000\001\000\000\000\000\000\000\000\000\000\000\000\000\000\000\000\000\000\000\000\000\000\000\000\000\000\000\000\000\000\000\000\000\000\000\000\000\000\000\000\003\000\000\000\000\000\000\000\002\000\000\000\000\000\000\000\000\000\000\000\000\000\000\000\001\000\000\000\000\000\000\000\000\000\000\000\000\000\000\000\001\000\000\000\000\000\000\000\000\000\000\000\000\000\000\000\000\000\000\000\000\000\000\000\002\000\000\000\000\000\000\000\000\000\000\000\000\000\000\000\000\000\000\000\000\000\000\000\000\000\000\000\000\000\000\000\000\000\000\000\000\000\000\000\000\000\000\000\000\000\000\000\000\000\000\000\000\000\000\000\000\000\000\000\000\000\000\000\002\000\000\000\000\000\000\000\000\000\000\000\000\000\000\000\001\000\000\000\000\000\000\000\004\000\000\000\000\000\000\000\000\000\000\000\000\000\000\000\000\000\000\000\000\000\000\000\001\000\000\000\000\000\000\000\000\000\000\000\000\000\000\000\000\000\000\000\000\000\000\000\001\000\000\000\000\000\000\000\000\000\000\000\000\000\000\000\000\000\000\000\000\000\000\000\000\000\000\000\000\000\000\000\000\000\000\000\000\000\000\000\000\000\000\000\000\000\000\000\000\000\000\000\000\000\000\000\000\000\000\000\000\000\000\000\000\000\000\000\000\000\000\000\000\000\000\000\000\000\000\000\000\000\000\000\000\000\000\000\000\000\000\000\000\000\000\000\000\000\000\000\000\000\000\000\000\000\000\000\000\000\000\000\002\000\000\000\000\000\000\000\000\000\000\000\000\000\000\000\001\000\000\000\000\000\000\000\000\000\000\000\000\000\000\000\000\000\000\000\000\000\000\000\000\000\000\000\000\000\000\000\002\000\000\000\000\000\000\000\000\000\000\000\000\000\000\000\000\000\000\000\000\000\000\000\000\000\000\000\000\000\000\000\006\000\000\000\000\000\000\000\000\000\000\000\000\000\000\000\000\000\000\000\000\000\000\000\000\000\000\000\000\000\000\000\000\000\000\000\000\000\000\000\000\000\000\000\000\000\000\000\000\000\000\000\000\000\000\000\000\000\000\000\000\000\000\000\000\000\000\000\000\000\000\000\000\000\000\000\000\000\000\000\000\000\000\000\000\000\000\000\000\000\000\000\000\000\000\000\000\000\000\000\000\000\000\000\000\000\000\000\000\000\000\000\000\000\000\000\000\000\000\000\000\000\000\000\000\000\000\000\000\000\000\000\000\000\000\000\000\000\000\000\000\000\000\000\000\000\000\000\000\000\000\000\000\000\000\000\000\000\000\000\001\000\000\000\000\000\000\000\000\000\000\000\000\000\000\000\000\000\000\000\000\000\000\000\000\000\000\000\000\000\000\000\000\000\000\000\000\000\000\000\000\000\000\000\000\000\000\000\000\000\000\000\000\000\000\000\000\000\000\000\000\000\000\000\000\000\000\000\000\000\000\000\000\000\000\000\000\000\000\000\000\000\000\000\000\000\000\000\000\000\000\000\000\000\000\000\000\000\000\000\000\000\000\000\000\000\000\000\000\000\000\000\000\000\000\000\000\000\000\000\000\000\000\000\000\000\000\000\000\000\000\000\000\000\000\000\000\000\000\000\000\000\000\000\000\000\000\000\000\000\000\000\000\000\000\000\000\000\000\000\000\000\000\000\000\000\000\000\000\000\000\000\000\000\000\000\000\000\000\000\000\000\000\000\000\000\000\000\000\000\000\000\000\000\000\000\000\000\000\000\000\000\000\000\000\000\000\000\000\000\000\000\000\000\000\000\000\000\000\000\000\000\000\000\001\000\000\000\000\000\000\000\000\000\000\000\000\000\000\000\000\000\000\000\000\000\000\000\000\000\000\000\000\000\000\000\000\000\000\000\000\000\000\000\000\000\000\000\000\000\000\000\001\000\000\000\000\000\000\000\000\000\000\000\000\000\000\000\001\000\000\000\000\000\000\000\001\000\000\000\000\000\000\000\001\000\000\000\000\000\000\000\000\000\000\000\000\000\000\000\001\000\000\000\000\000\000\000\000\000\000\000\000\000\000\000\000\000\000\000\000\000\000\000\000\000\000\000\000\000\000\000\000\000\000\000\000\000\000\000\001\000\000\000\000\000\000\000\000\000\000\000\000\000\000\000\000\000\000\000\000\000\000\000\000\000\000\000\000\000\000\000\000\000\000\000\000\000\000\000\000\000\000\000\000\000\000\000\000\000\000\000\000\000\000\000\000\000\000\000\000\000\000\000\000\000\000\000\000\000\000\000\000\000\000\000\000\000\000\000\002\000\000\000\000\000\000\000\000\000\000\000\000\000\000\000\002\000\000\000\000\000\000\000\001\000\000\000\000\000\000\000\000\000\000\000\000\000\000\000\000\000\000\000\000\000\000\000\002\000\000\000\000\000\000\000\000\000\000\000\000\000\000\000\001\000\000\000\000\000\000\000\000\000\000\000\000\000\000\000\001\000\000\000\000\000\000\000\000\000\000\000\000\000\000\000\000\000\000\000\000\000\000\000\000\000\000\000\000\000\000\000\000\000\000\000\000\000\000\000\001\000\000\000\000\000\000\000\000\000\000\000\000\000\000\000\000\000\000\000\000\000\000\000\001\000\000\000\000\000\000\000\000\000\000\000\000\000\000\000\000\000\000\000\000\000\000\000\000\000\000\000\000\000\000\000\000\000\000\000\000\000\000\000\002\000\000\000\000\000\000\000\004\000\000\000\000\000\000\000\000\000\000\000\000\000\000\000\000\000\000\000\000\000\000\000\000\000\000\000\000\000\000\000\000\000\000\000\000\000\000\000\000\000\000\000\000\000\000\000\002\000\000\000\000\000\000\000\000\000\000\000\000\000\000\000\000\000\000\000\000\000\000\000\001\000\000\000\000\000\000\000\002\000\000\000\000\000\000\000\000\000\000\000\000\000\000\000\000\000\000\000\000\000\000\000\000\000\000\000\000\000\000\000\000\000\000\000\000\000\000\000\000\000\000\000\000\000\000\000\001\000\000\000\000\000\000\000"
      }
    }
  }
}
node {
  name: "normalize_element/component_5"
  op: "Const"
  device: "/device:CPU:0"
  attr {
    key: "_output_shapes"
    value {
      list {
        shape {
          dim {
            size: 668
          }
        }
      }
    }
  }
  attr {
    key: "dtype"
    value {
      type: DT_INT64
    }
  }
  attr {
    key: "value"
    value {
      tensor {
        dtype: DT_INT64
        tensor_shape {
          dim {
            size: 668
          }
        }
